const unsigned char model[] = {
  0x1c, 0x00, 0x00, 0x00, 0x54, 0x46, 0x4c, 0x33, 0x14, 0x00, 0x20, 0x00,
  0x1c, 0x00, 0x18, 0x00, 0x14, 0x00, 0x10, 0x00, 0x0c, 0x00, 0x00, 0x00,
  0x08, 0x00, 0x04, 0x00, 0x14, 0x00, 0x00, 0x00, 0x1c, 0x00, 0x00, 0x00,
  0x98, 0x00, 0x00, 0x00, 0xf0, 0x00, 0x00, 0x00, 0xec, 0x2b, 0x00, 0x00,
  0xfc, 0x2b, 0x00, 0x00, 0x74, 0x31, 0x00, 0x00, 0x03, 0x00, 0x00, 0x00,
  0x01, 0x00, 0x00, 0x00, 0x10, 0x00, 0x00, 0x00, 0x00, 0x00, 0x0a, 0x00,
  0x10, 0x00, 0x0c, 0x00, 0x08, 0x00, 0x04, 0x00, 0x0a, 0x00, 0x00, 0x00,
  0x0c, 0x00, 0x00, 0x00, 0x1c, 0x00, 0x00, 0x00, 0x3c, 0x00, 0x00, 0x00,
  0x0f, 0x00, 0x00, 0x00, 0x73, 0x65, 0x72, 0x76, 0x69, 0x6e, 0x67, 0x5f,
  0x64, 0x65, 0x66, 0x61, 0x75, 0x6c, 0x74, 0x00, 0x01, 0x00, 0x00, 0x00,
  0x04, 0x00, 0x00, 0x00, 0x90, 0xff, 0xff, 0xff, 0x0a, 0x00, 0x00, 0x00,
  0x04, 0x00, 0x00, 0x00, 0x08, 0x00, 0x00, 0x00, 0x6f, 0x75, 0x74, 0x70,
  0x75, 0x74, 0x5f, 0x30, 0x00, 0x00, 0x00, 0x00, 0x01, 0x00, 0x00, 0x00,
  0x04, 0x00, 0x00, 0x00, 0xfa, 0xd3, 0xff, 0xff, 0x04, 0x00, 0x00, 0x00,
  0x0f, 0x00, 0x00, 0x00, 0x6b, 0x65, 0x72, 0x61, 0x73, 0x5f, 0x74, 0x65,
  0x6e, 0x73, 0x6f, 0x72, 0x5f, 0x34, 0x30, 0x00, 0x02, 0x00, 0x00, 0x00,
  0x34, 0x00, 0x00, 0x00, 0x04, 0x00, 0x00, 0x00, 0xdc, 0xff, 0xff, 0xff,
  0x0d, 0x00, 0x00, 0x00, 0x04, 0x00, 0x00, 0x00, 0x13, 0x00, 0x00, 0x00,
  0x43, 0x4f, 0x4e, 0x56, 0x45, 0x52, 0x53, 0x49, 0x4f, 0x4e, 0x5f, 0x4d,
  0x45, 0x54, 0x41, 0x44, 0x41, 0x54, 0x41, 0x00, 0x08, 0x00, 0x0c, 0x00,
  0x08, 0x00, 0x04, 0x00, 0x08, 0x00, 0x00, 0x00, 0x0c, 0x00, 0x00, 0x00,
  0x04, 0x00, 0x00, 0x00, 0x13, 0x00, 0x00, 0x00, 0x6d, 0x69, 0x6e, 0x5f,
  0x72, 0x75, 0x6e, 0x74, 0x69, 0x6d, 0x65, 0x5f, 0x76, 0x65, 0x72, 0x73,
  0x69, 0x6f, 0x6e, 0x00, 0x0e, 0x00, 0x00, 0x00, 0xf8, 0x2a, 0x00, 0x00,
  0xf0, 0x2a, 0x00, 0x00, 0xf0, 0x29, 0x00, 0x00, 0x28, 0x1e, 0x00, 0x00,
  0x08, 0x1e, 0x00, 0x00, 0xbc, 0x1d, 0x00, 0x00, 0xe4, 0x1c, 0x00, 0x00,
  0xb4, 0x00, 0x00, 0x00, 0xac, 0x00, 0x00, 0x00, 0xa4, 0x00, 0x00, 0x00,
  0x9c, 0x00, 0x00, 0x00, 0x94, 0x00, 0x00, 0x00, 0x74, 0x00, 0x00, 0x00,
  0x04, 0x00, 0x00, 0x00, 0xae, 0xd4, 0xff, 0xff, 0x04, 0x00, 0x00, 0x00,
  0x60, 0x00, 0x00, 0x00, 0x10, 0x00, 0x00, 0x00, 0x00, 0x00, 0x00, 0x00,
  0x08, 0x00, 0x0e, 0x00, 0x08, 0x00, 0x04, 0x00, 0x08, 0x00, 0x00, 0x00,
  0x10, 0x00, 0x00, 0x00, 0x24, 0x00, 0x00, 0x00, 0x00, 0x00, 0x06, 0x00,
  0x08, 0x00, 0x04, 0x00, 0x06, 0x00, 0x00, 0x00, 0x04, 0x00, 0x00, 0x00,
  0x00, 0x00, 0x00, 0x00, 0x0c, 0x00, 0x18, 0x00, 0x14, 0x00, 0x10, 0x00,
  0x0c, 0x00, 0x04, 0x00, 0x0c, 0x00, 0x00, 0x00, 0x54, 0x19, 0x64, 0x1f,
  0x67, 0xff, 0x6f, 0xa6, 0x02, 0x00, 0x00, 0x00, 0x02, 0x00, 0x00, 0x00,
  0x04, 0x00, 0x00, 0x00, 0x06, 0x00, 0x00, 0x00, 0x32, 0x2e, 0x31, 0x39,
  0x2e, 0x30, 0x00, 0x00, 0x1a, 0xd5, 0xff, 0xff, 0x04, 0x00, 0x00, 0x00,
  0x10, 0x00, 0x00, 0x00, 0x31, 0x2e, 0x35, 0x2e, 0x30, 0x00, 0x00, 0x00,
  0x00, 0x00, 0x00, 0x00, 0x00, 0x00, 0x00, 0x00, 0x70, 0xd0, 0xff, 0xff,
  0x74, 0xd0, 0xff, 0xff, 0x78, 0xd0, 0xff, 0xff, 0x7c, 0xd0, 0xff, 0xff,
  0x46, 0xd5, 0xff, 0xff, 0x04, 0x00, 0x00, 0x00, 0x20, 0x1c, 0x00, 0x00,
  0xa4, 0x31, 0x9e, 0x3d, 0x14, 0x01, 0xf8, 0x3e, 0x0d, 0x85, 0x77, 0x3c,
  0x4e, 0x9f, 0xeb, 0xbb, 0x5a, 0x91, 0x99, 0xbd, 0xa8, 0x4d, 0x3b, 0x3d,
  0x32, 0x85, 0xda, 0x3f, 0x81, 0xbc, 0x14, 0x40, 0xfd, 0xe5, 0xc2, 0x3f,
  0xdf, 0x40, 0x6b, 0x3f, 0xa1, 0x0b, 0x79, 0x3f, 0x16, 0xd3, 0xe8, 0x3f,
  0xf1, 0x77, 0x40, 0x3f, 0xb9, 0x9b, 0x80, 0x3f, 0xae, 0x4f, 0x01, 0x3f,
  0x52, 0x40, 0x93, 0x3f, 0xae, 0x3c, 0x94, 0x3f, 0x9b, 0xcc, 0xd3, 0x3f,
  0x8b, 0xaf, 0x87, 0x3e, 0x18, 0xd8, 0x76, 0x3e, 0x7a, 0x26, 0xab, 0x3e,
  0xd0, 0x00, 0x39, 0x3d, 0xc9, 0x6a, 0x2e, 0x3e, 0xb7, 0xb8, 0x5e, 0xbc,
  0xb1, 0x07, 0xe7, 0x3e, 0x56, 0x8d, 0x1d, 0x3f, 0xfc, 0xa7, 0x67, 0x3e,
  0xab, 0x86, 0xaa, 0x3e, 0xf6, 0xbf, 0x38, 0x3e, 0xd4, 0xff, 0xcc, 0x3d,
  0x3e, 0xf2, 0x89, 0xbd, 0x18, 0x67, 0x5d, 0xbe, 0x35, 0xc4, 0xe1, 0xbd,
  0x9f, 0x12, 0x01, 0x3f, 0xff, 0x1f, 0x10, 0x3e, 0x31, 0x5b, 0x19, 0x40,
  0xb1, 0xfb, 0x64, 0x3e, 0xcd, 0x2d, 0xac, 0x3e, 0x5b, 0x6f, 0xa1, 0x3e,
  0xc8, 0xcb, 0x42, 0xbd, 0x60, 0x4e, 0x24, 0x3e, 0xe7, 0xda, 0x2e, 0x3e,
  0xb0, 0xd3, 0x3a, 0x3f, 0x04, 0xa2, 0x83, 0x3d, 0xfe, 0x75, 0x16, 0x40,
  0x9e, 0xd8, 0x1c, 0x3e, 0xd8, 0xe6, 0x05, 0x40, 0x5d, 0x2a, 0x08, 0xbe,
  0x49, 0x8e, 0x80, 0x3f, 0x8f, 0x81, 0x6a, 0x3f, 0x0a, 0x53, 0x7e, 0x3f,
  0xfc, 0x8b, 0x90, 0x3e, 0x43, 0xe7, 0x05, 0x40, 0x98, 0x5d, 0x01, 0xbe,
  0x93, 0xee, 0xa2, 0xbd, 0xc0, 0x69, 0xf7, 0x3e, 0xf6, 0x36, 0xcd, 0xbd,
  0xd3, 0x4f, 0xa6, 0xbd, 0xb1, 0x43, 0x90, 0x3e, 0x1b, 0x6f, 0x73, 0x3e,
  0x16, 0x69, 0x96, 0x3d, 0xd8, 0x84, 0xbd, 0x3e, 0x2a, 0x7d, 0x59, 0x3e,
  0x1a, 0xb8, 0x5c, 0x3e, 0x02, 0xf3, 0xe6, 0x3b, 0x6d, 0x9a, 0x02, 0x3e,
  0x6f, 0xd9, 0x55, 0xbe, 0x5d, 0x77, 0x1d, 0xbe, 0x88, 0xeb, 0x13, 0xbd,
  0x2d, 0xf1, 0x1b, 0xbe, 0x13, 0x96, 0x05, 0x40, 0x73, 0x8e, 0x14, 0xbf,
  0xcc, 0x60, 0x4a, 0xbe, 0xc0, 0x7b, 0xe8, 0xbd, 0x98, 0x44, 0x29, 0x3d,
  0xd9, 0x10, 0x84, 0x3e, 0x5a, 0xf2, 0xa7, 0xbd, 0xe7, 0x97, 0x0b, 0xbe,
  0x5a, 0x07, 0x33, 0xbe, 0x9c, 0xd4, 0xd7, 0x3d, 0x1a, 0x90, 0x2f, 0x3e,
  0x02, 0x74, 0x50, 0x3e, 0xa2, 0xfd, 0x7b, 0x3e, 0x48, 0x47, 0xe5, 0xbd,
  0xc5, 0x07, 0x75, 0xbe, 0xed, 0x42, 0x5f, 0xbe, 0xb0, 0xb2, 0x54, 0x3d,
  0x28, 0x1e, 0xb8, 0xbc, 0x50, 0x8e, 0x23, 0x3e, 0xd4, 0x85, 0xe8, 0x3d,
  0xe0, 0x53, 0xdc, 0x3d, 0x54, 0xe7, 0x14, 0x3e, 0x0c, 0x36, 0x4c, 0xbe,
  0x00, 0x82, 0x4a, 0xba, 0x80, 0xe4, 0x1a, 0x3c, 0x1e, 0x0b, 0x01, 0xbe,
  0x80, 0x46, 0xc2, 0x3d, 0x21, 0x4a, 0x7b, 0xbe, 0x10, 0x20, 0x24, 0x3d,
  0x36, 0xde, 0x2d, 0xbe, 0x36, 0x4d, 0x7b, 0x3e, 0xa8, 0xd0, 0xd7, 0xbc,
  0x28, 0xd9, 0x16, 0xbe, 0xf6, 0x63, 0x1b, 0x3e, 0x6d, 0x56, 0x84, 0x3e,
  0xb8, 0xf7, 0x1e, 0xbd, 0xce, 0xb2, 0x2a, 0xbe, 0xcf, 0x1d, 0x85, 0xbe,
  0x4e, 0x79, 0xd5, 0x3e, 0xd4, 0x61, 0xdd, 0x3e, 0x1b, 0x4c, 0x39, 0x3f,
  0xc1, 0xf7, 0x48, 0x3e, 0xd4, 0x28, 0x26, 0x3f, 0x65, 0x71, 0xf3, 0x3e,
  0x1c, 0x0f, 0x7c, 0xbf, 0xc9, 0xde, 0xe5, 0xbf, 0x44, 0xa1, 0x1c, 0x3f,
  0x1f, 0x53, 0x7b, 0xbd, 0x13, 0xa1, 0x56, 0x3f, 0xf5, 0xc2, 0xb5, 0xbf,
  0xfc, 0xf6, 0xef, 0x3e, 0x0d, 0x93, 0xe4, 0x3e, 0x43, 0x54, 0x05, 0x3f,
  0xf5, 0x2e, 0x28, 0xbf, 0xf5, 0xd7, 0x70, 0x3f, 0x4f, 0x23, 0x85, 0xbf,
  0xc2, 0xdf, 0x0d, 0x3f, 0xe8, 0x17, 0x33, 0x3f, 0x21, 0x0c, 0xd9, 0x3e,
  0xcc, 0x2f, 0xd7, 0x3e, 0x08, 0xa3, 0x16, 0x3f, 0xa2, 0x4f, 0x08, 0x3f,
  0xae, 0x9e, 0x87, 0x3e, 0xd9, 0x4e, 0x1d, 0x3e, 0x68, 0xd2, 0x48, 0x3f,
  0xfd, 0x18, 0x0c, 0x3f, 0x9a, 0xf7, 0xad, 0x3e, 0x74, 0x32, 0xfe, 0x3e,
  0xd6, 0x69, 0x4a, 0xbe, 0xb4, 0xc1, 0x01, 0x3d, 0x9b, 0x7e, 0xe4, 0x3d,
  0x91, 0xe7, 0x54, 0x3d, 0x8d, 0xb4, 0xa5, 0x3f, 0xf7, 0xb0, 0xbb, 0xbf,
  0x00, 0x83, 0xce, 0xba, 0x50, 0x33, 0xc7, 0xbd, 0xf2, 0xca, 0x06, 0xbe,
  0x50, 0xa8, 0x18, 0x3e, 0xc0, 0x6d, 0x0c, 0x3d, 0x60, 0x79, 0x2c, 0x3c,
  0x18, 0x01, 0xd9, 0xbd, 0x77, 0xce, 0x05, 0xbe, 0xb6, 0xe0, 0xe5, 0xbd,
  0x50, 0x6a, 0x8e, 0x3c, 0xf8, 0x41, 0x8b, 0x3d, 0x20, 0x94, 0x81, 0xbd,
  0x10, 0xc9, 0x6c, 0x3d, 0xb5, 0x89, 0x66, 0xbe, 0xde, 0xc0, 0x1b, 0xbe,
  0x50, 0x31, 0x1a, 0x3d, 0xb3, 0x17, 0x70, 0xbe, 0x3c, 0x58, 0x2c, 0x3e,
  0x88, 0x4f, 0xfe, 0x3d, 0x16, 0xbe, 0x8b, 0xbd, 0x60, 0x84, 0x20, 0xbc,
  0x3f, 0x10, 0x03, 0xbe, 0x60, 0x2f, 0xe2, 0x3d, 0x10, 0x49, 0x79, 0x3d,
  0x20, 0xea, 0x63, 0x3c, 0x4e, 0xdb, 0xac, 0xbd, 0x3e, 0x93, 0x46, 0xbe,
  0x00, 0xf8, 0xe4, 0x3c, 0x10, 0xc5, 0x73, 0xbd, 0x55, 0x33, 0x7f, 0xbe,
  0x47, 0x74, 0x81, 0xbe, 0x42, 0x83, 0x69, 0xbe, 0x68, 0x89, 0x4e, 0x3e,
  0x68, 0x08, 0xd0, 0x3d, 0x58, 0xd3, 0x3d, 0xbe, 0xce, 0xe9, 0x61, 0xbe,
  0x0c, 0x13, 0xfc, 0x3d, 0xca, 0x1f, 0x13, 0x3e, 0x49, 0xa6, 0x0e, 0xbe,
  0x60, 0xe8, 0x9f, 0x3c, 0x22, 0xde, 0x97, 0xbd, 0xf8, 0xc3, 0x07, 0x3d,
  0xc8, 0xca, 0x86, 0xbe, 0xe8, 0x53, 0x70, 0xbd, 0x60, 0x38, 0x69, 0x3c,
  0x6d, 0xcd, 0x84, 0x3e, 0x38, 0x72, 0x6f, 0x3e, 0x7c, 0x34, 0x02, 0xbe,
  0x3c, 0x54, 0xc8, 0x3d, 0x7c, 0x81, 0x28, 0xbe, 0x78, 0x06, 0x5b, 0xbe,
  0x80, 0x85, 0xdb, 0x3b, 0x40, 0xb2, 0x18, 0x3e, 0x28, 0xf0, 0x30, 0xbd,
  0x21, 0x16, 0x40, 0xbe, 0x6c, 0x1f, 0x4e, 0x3e, 0x88, 0xa8, 0x18, 0xbe,
  0xc7, 0x77, 0x1e, 0xbe, 0x51, 0x1c, 0x72, 0xbe, 0x88, 0x4d, 0x50, 0x3d,
  0x60, 0x01, 0xe4, 0x3c, 0xc9, 0xa6, 0x83, 0xbe, 0x30, 0xdf, 0x45, 0x3d,
  0x14, 0xd8, 0x1b, 0xbe, 0x00, 0xc4, 0x8a, 0x3b, 0x78, 0xba, 0x3b, 0xbe,
  0x68, 0x6c, 0x60, 0x3e, 0xc5, 0x73, 0x81, 0x3e, 0x54, 0x87, 0x4a, 0xbe,
  0x48, 0xbd, 0x4e, 0x3e, 0x6c, 0xa2, 0xa4, 0x3d, 0x38, 0xd9, 0xdb, 0xbd,
  0x49, 0x3e, 0x2a, 0x3e, 0x1c, 0xd9, 0x07, 0xbe, 0xf6, 0x4d, 0x42, 0x3d,
  0x53, 0x27, 0x3d, 0xbe, 0xec, 0x97, 0x15, 0xbe, 0xce, 0x90, 0x84, 0xbe,
  0xf1, 0x61, 0x80, 0x3d, 0xa2, 0xd9, 0x0e, 0x3e, 0x13, 0x0f, 0xed, 0xbd,
  0x1d, 0x27, 0x09, 0xbe, 0xeb, 0x80, 0xcb, 0x3d, 0x37, 0x14, 0x00, 0x3e,
  0xbc, 0x56, 0x63, 0x3e, 0x4c, 0xe7, 0x70, 0x3e, 0x87, 0x8e, 0x48, 0x3e,
  0x7c, 0xba, 0x87, 0xbe, 0x47, 0x9d, 0xa5, 0xbd, 0x84, 0x08, 0xcf, 0xbd,
  0x26, 0x62, 0x10, 0xbd, 0x26, 0x9f, 0xd6, 0x3d, 0x16, 0xc6, 0x07, 0x3e,
  0x45, 0x2e, 0xb3, 0x3d, 0x0d, 0x6b, 0x25, 0x3e, 0x03, 0xa6, 0x89, 0xbd,
  0xb8, 0x13, 0xcd, 0xbb, 0x3f, 0xd8, 0x38, 0xbd, 0xf9, 0x6d, 0x41, 0xbe,
  0x88, 0x32, 0xe3, 0x3d, 0x0b, 0x23, 0x17, 0xbd, 0x36, 0x10, 0xc9, 0x3d,
  0xb6, 0x63, 0x9e, 0x3d, 0x2a, 0x8c, 0x30, 0xbe, 0x04, 0xda, 0xc2, 0xbd,
  0xdc, 0x92, 0xbe, 0xbd, 0x86, 0x0f, 0x98, 0x3d, 0x9e, 0xe6, 0x38, 0xbd,
  0xab, 0x29, 0x9a, 0xbd, 0x03, 0x6d, 0x4a, 0xbc, 0x87, 0x4f, 0xf2, 0x3e,
  0xa5, 0x65, 0x9c, 0x3e, 0x19, 0x96, 0x52, 0x3d, 0x44, 0xed, 0xa6, 0x3e,
  0xe0, 0xe8, 0x29, 0xbe, 0x44, 0xbf, 0x1f, 0xbf, 0x9f, 0x0e, 0x0e, 0x40,
  0x1b, 0x62, 0xda, 0xbd, 0xc4, 0xaa, 0x8a, 0x3f, 0x4a, 0x9d, 0x0e, 0xbf,
  0x71, 0xbb, 0x1f, 0x3f, 0xd2, 0x9d, 0x4e, 0x3f, 0x6c, 0x53, 0x46, 0x3f,
  0x2c, 0x51, 0x9b, 0xbe, 0x82, 0x85, 0x73, 0x3f, 0xa4, 0xbf, 0x0f, 0xbf,
  0xf4, 0x0f, 0xb4, 0x3e, 0x6c, 0xda, 0xcf, 0x3e, 0xee, 0x84, 0xee, 0x3c,
  0x47, 0xeb, 0xd3, 0x3d, 0xb3, 0x1e, 0x48, 0x3e, 0x23, 0x1e, 0x95, 0x3e,
  0x96, 0xc8, 0xba, 0xbd, 0x9f, 0xe2, 0x55, 0x3e, 0xaf, 0x05, 0x8a, 0x3e,
  0x07, 0x49, 0xba, 0x3e, 0xf5, 0xa9, 0xff, 0x3d, 0xc2, 0xec, 0xc4, 0xbd,
  0x3f, 0xfc, 0x59, 0xbe, 0x77, 0xa6, 0x3f, 0x3e, 0xbb, 0x56, 0x04, 0xbe,
  0x62, 0x16, 0x9f, 0xba, 0xe6, 0x71, 0xb4, 0x3f, 0x37, 0x02, 0x81, 0xbf,
  0xd2, 0xb7, 0x3e, 0xbe, 0xf4, 0x84, 0x2c, 0x3e, 0xe9, 0x3f, 0x0b, 0xbe,
  0x30, 0xc8, 0xda, 0x3c, 0xd8, 0xd0, 0x19, 0x3e, 0x80, 0xc4, 0x1b, 0xbd,
  0xbe, 0xbd, 0x79, 0x3e, 0xc0, 0x3a, 0xdf, 0x3c, 0xee, 0xbc, 0x75, 0x3e,
  0xec, 0xc7, 0x5c, 0xbd, 0x24, 0x52, 0x30, 0x3e, 0xd4, 0xe8, 0x76, 0xbd,
  0x54, 0x22, 0x28, 0xbe, 0x80, 0x97, 0xdc, 0x3d, 0x68, 0xc9, 0xba, 0x3d,
  0xc0, 0xce, 0x04, 0xbe, 0x28, 0x0d, 0xa5, 0xbd, 0x6a, 0x61, 0x7d, 0x3e,
  0xce, 0xf9, 0x86, 0xbe, 0x44, 0x0f, 0x48, 0x3e, 0x6c, 0x9d, 0x77, 0xbd,
  0x4e, 0xb3, 0x58, 0x3e, 0x07, 0xc2, 0x6d, 0xbe, 0x7f, 0xff, 0x49, 0xbe,
  0x20, 0x15, 0xa7, 0x3c, 0x08, 0xcb, 0x42, 0x3d, 0x48, 0xc1, 0x2a, 0x3e,
  0xf1, 0x2f, 0x42, 0xbe, 0x30, 0x3a, 0x73, 0xbd, 0x5a, 0x08, 0x56, 0xbe,
  0xc0, 0x7a, 0x44, 0xbd, 0xd8, 0x87, 0x86, 0x3d, 0x31, 0x83, 0x60, 0xbe,
  0x6c, 0x2c, 0x39, 0xbe, 0x94, 0x3d, 0x8d, 0xbd, 0x20, 0x35, 0x1c, 0x3e,
  0x5c, 0xef, 0xf9, 0x3e, 0xe6, 0xa2, 0xde, 0x3e, 0x23, 0x28, 0x58, 0x3f,
  0x86, 0xda, 0x14, 0x3f, 0x2b, 0xa4, 0x49, 0x3f, 0x2c, 0xc9, 0x45, 0x3f,
  0x8c, 0x72, 0x19, 0xbf, 0xb0, 0x64, 0xf1, 0xbf, 0x3b, 0x21, 0x59, 0x3f,
  0x5d, 0xe0, 0xc0, 0xbe, 0xe8, 0x73, 0x33, 0x3f, 0xa2, 0x1b, 0xd7, 0xbf,
  0x25, 0x74, 0x96, 0x3e, 0x93, 0xa2, 0x16, 0x3f, 0xf9, 0x39, 0x80, 0x3f,
  0xc9, 0x84, 0xf1, 0xbe, 0xae, 0xa7, 0x24, 0x3f, 0x40, 0xf0, 0xd3, 0xbf,
  0xbe, 0x09, 0xc8, 0x3e, 0x41, 0x96, 0x3e, 0x3f, 0xeb, 0x86, 0x37, 0x3f,
  0x14, 0x39, 0xd4, 0x3e, 0xe1, 0x54, 0xf4, 0x3e, 0x59, 0x86, 0x09, 0x3f,
  0xf5, 0xec, 0x9d, 0x3e, 0x08, 0x22, 0x70, 0x3e, 0xed, 0x70, 0x47, 0x3f,
  0x28, 0xa9, 0x32, 0x3f, 0x9d, 0x4d, 0x52, 0x3f, 0x8f, 0x56, 0x12, 0x3f,
  0xa6, 0x55, 0x69, 0x3e, 0x13, 0x25, 0x33, 0x3e, 0x24, 0x83, 0xed, 0xbd,
  0xa9, 0x72, 0x7e, 0xbe, 0x8e, 0x67, 0xb3, 0x3f, 0x6f, 0xaf, 0x10, 0xc0,
  0xfc, 0x45, 0xd2, 0x3e, 0x0f, 0x27, 0xc8, 0xbd, 0x5f, 0xab, 0xfc, 0x3d,
  0x16, 0xd0, 0x96, 0x3e, 0x8e, 0xf3, 0xc1, 0x3d, 0x9d, 0xc6, 0xbf, 0x3e,
  0xaf, 0x19, 0x6b, 0xbe, 0xd3, 0x3e, 0x0d, 0x3f, 0xee, 0xa8, 0x19, 0xc0,
  0x04, 0xe5, 0xce, 0x3d, 0xc7, 0x46, 0xf0, 0xbf, 0xee, 0xde, 0x7b, 0x3e,
  0xd7, 0xbb, 0x15, 0xbf, 0xb6, 0xbe, 0x7b, 0xbe, 0xa0, 0x4d, 0x54, 0xbf,
  0xe0, 0x9b, 0x2c, 0x3c, 0x0f, 0xba, 0xf0, 0xbf, 0xf4, 0x05, 0x76, 0x3e,
  0x98, 0x9b, 0x86, 0xbc, 0x57, 0xa5, 0x2c, 0xbe, 0x13, 0xd9, 0xc8, 0x3e,
  0x18, 0x77, 0xcf, 0xbd, 0xd1, 0x93, 0xd4, 0xbc, 0x1d, 0x7d, 0xad, 0x3e,
  0xd5, 0x5d, 0xb0, 0x3d, 0x8e, 0x35, 0x88, 0x3e, 0x0f, 0xef, 0xc0, 0xbe,
  0xc6, 0x11, 0xed, 0x3d, 0x34, 0xb5, 0x58, 0x3e, 0x5d, 0x32, 0xcd, 0x3e,
  0x8d, 0xbd, 0x40, 0xbe, 0xd2, 0x29, 0x74, 0xbe, 0x26, 0x80, 0xea, 0xbc,
  0xd3, 0x25, 0x01, 0x3f, 0x84, 0xdc, 0xd1, 0xbf, 0x95, 0xd3, 0x6f, 0x3f,
  0x80, 0xb5, 0x10, 0x3b, 0x0a, 0x45, 0x81, 0xbe, 0x0a, 0xef, 0x0e, 0xbe,
  0x3c, 0xd0, 0x3e, 0x3e, 0xaa, 0x73, 0x1f, 0xbe, 0x28, 0x72, 0x71, 0x3d,
  0x4a, 0xd9, 0x71, 0x3e, 0xee, 0x9f, 0xab, 0xbd, 0x1c, 0x5f, 0x37, 0x3e,
  0x80, 0x45, 0x60, 0xbc, 0x78, 0xd7, 0xcc, 0x3d, 0xaa, 0x4e, 0x20, 0xbe,
  0x80, 0x25, 0x84, 0x3b, 0xc8, 0xa5, 0x56, 0x3e, 0x9c, 0xa0, 0xdc, 0xbd,
  0xed, 0x07, 0x83, 0x3e, 0x8d, 0x42, 0x37, 0xbe, 0x0a, 0xab, 0xc3, 0xbd,
  0xe1, 0x91, 0x44, 0xbe, 0xef, 0x32, 0x41, 0xbe, 0x38, 0x5b, 0xd8, 0x3d,
  0x8a, 0x87, 0x9f, 0xbd, 0x48, 0xdb, 0x4c, 0x3d, 0x25, 0x31, 0x84, 0x3e,
  0x22, 0x96, 0x9a, 0xbd, 0xae, 0x06, 0x8b, 0xbd, 0x7e, 0x37, 0x1a, 0xbe,
  0x10, 0x17, 0x42, 0x3e, 0xc8, 0xa9, 0x37, 0xbe, 0x48, 0x8c, 0xb2, 0xbd,
  0xc0, 0xbb, 0x94, 0x3c, 0x04, 0xe0, 0x8f, 0x3d, 0xc8, 0xe7, 0x42, 0x3e,
  0xc9, 0xfb, 0x43, 0xbe, 0xb3, 0xe1, 0x80, 0xbe, 0x62, 0xde, 0x43, 0xbe,
  0xbf, 0x5e, 0x60, 0xbe, 0xca, 0x3e, 0x84, 0x3e, 0xce, 0x61, 0x50, 0x3d,
  0xdf, 0xa9, 0x73, 0x3e, 0xe7, 0x45, 0x86, 0x3b, 0x51, 0x20, 0x12, 0xbe,
  0xbb, 0xf1, 0x28, 0x3f, 0x48, 0xa1, 0xfd, 0x3f, 0x38, 0xa2, 0x2b, 0xbd,
  0x71, 0x36, 0xfd, 0x3e, 0xd3, 0xdc, 0xaa, 0xbe, 0xcc, 0x66, 0xde, 0x3f,
  0xda, 0x3d, 0x85, 0x3d, 0xbd, 0x28, 0xbd, 0x3d, 0x5a, 0xbb, 0x47, 0xbe,
  0xc7, 0xf1, 0x68, 0x3f, 0xb0, 0xe8, 0xbd, 0xbe, 0x74, 0x2d, 0xc6, 0x3f,
  0xb4, 0x49, 0x29, 0xbe, 0x60, 0x36, 0xa5, 0xbc, 0x9d, 0x86, 0x98, 0x3e,
  0x76, 0x83, 0x3c, 0xbe, 0x37, 0x06, 0x95, 0xbd, 0x4d, 0xa3, 0x75, 0xbc,
  0x73, 0x60, 0x53, 0xbc, 0xa4, 0xa5, 0x61, 0x3e, 0x92, 0x4a, 0xea, 0x3d,
  0x7d, 0x8c, 0xeb, 0xbd, 0x1c, 0x7e, 0x59, 0xbe, 0xd5, 0x29, 0x3b, 0xbd,
  0x0d, 0x9b, 0xaf, 0xbd, 0xe7, 0x3c, 0x26, 0xbe, 0x2b, 0x38, 0xdf, 0x3c,
  0xd5, 0xce, 0xd9, 0x3e, 0x8e, 0x1c, 0x23, 0xbf, 0xfb, 0x7e, 0x0b, 0x40,
  0x00, 0x3c, 0x67, 0x3b, 0x1c, 0xc4, 0xd8, 0x3d, 0x0a, 0x09, 0x6c, 0xbe,
  0xa6, 0x16, 0x65, 0xbe, 0x68, 0x70, 0x27, 0xbd, 0x31, 0x16, 0x55, 0xbe,
  0x28, 0x33, 0xde, 0x3d, 0x16, 0xea, 0x57, 0xbe, 0xbd, 0x02, 0x09, 0xbe,
  0xd4, 0xa5, 0x2c, 0xbd, 0xa6, 0x54, 0x62, 0xbe, 0x06, 0x7e, 0x0e, 0x3e,
  0xa2, 0x6b, 0x04, 0xbe, 0x58, 0xb9, 0xc6, 0x3d, 0xa4, 0x87, 0x8d, 0x3d,
  0xd4, 0xc5, 0x76, 0xbe, 0x7c, 0x43, 0x5b, 0x3e, 0xf0, 0xb9, 0x8e, 0x3d,
  0x82, 0xb3, 0x71, 0x3e, 0xda, 0x7a, 0x77, 0x3e, 0x2c, 0x83, 0xdb, 0x3d,
  0x2a, 0x55, 0x49, 0xbe, 0x8c, 0x80, 0x66, 0xbe, 0x80, 0xbe, 0x4e, 0x3e,
  0x02, 0x17, 0x7d, 0x3e, 0x60, 0xfa, 0xb8, 0x3d, 0x78, 0xb5, 0x8b, 0xbd,
  0x03, 0xbf, 0x14, 0xbe, 0x12, 0x84, 0xed, 0xbd, 0x9c, 0x59, 0x26, 0xbd,
  0xe3, 0xdd, 0x74, 0xbe, 0x62, 0x89, 0x48, 0xbe, 0xbe, 0x50, 0x84, 0xbe,
  0x48, 0x8f, 0xa0, 0x3d, 0x74, 0x80, 0x2f, 0xbe, 0xe0, 0x69, 0x75, 0x3c,
  0x64, 0xc1, 0x01, 0xbd, 0xba, 0x91, 0x29, 0xbe, 0xbf, 0x92, 0x82, 0x3e,
  0x96, 0x84, 0x5d, 0xbe, 0x2c, 0x81, 0xd7, 0x3d, 0x98, 0x3f, 0x5e, 0xbd,
  0xc9, 0x16, 0x46, 0xbe, 0x60, 0x18, 0xce, 0x3c, 0x20, 0x91, 0x39, 0x3e,
  0x42, 0x92, 0x75, 0xbe, 0x8a, 0xec, 0x10, 0xbe, 0xb8, 0x48, 0xdf, 0xbd,
  0xca, 0xb9, 0x3d, 0x3e, 0x54, 0x67, 0x16, 0xbe, 0xe8, 0x7e, 0xd7, 0xbc,
  0xcc, 0x2c, 0x1d, 0x3e, 0x20, 0x35, 0xe3, 0x3c, 0x74, 0x68, 0x3d, 0x3e,
  0x78, 0xa7, 0x10, 0xbe, 0x94, 0x6f, 0xc3, 0x3d, 0x2f, 0x41, 0x06, 0xbe,
  0xbf, 0x52, 0x82, 0xbe, 0x58, 0x70, 0x87, 0x3d, 0xfe, 0x24, 0x4d, 0x3e,
  0x80, 0x14, 0x6f, 0xbb, 0x0a, 0x46, 0x5c, 0x3e, 0x90, 0x30, 0x14, 0xbe,
  0xd8, 0x66, 0xe0, 0xbd, 0x21, 0xbe, 0x6e, 0xbe, 0x30, 0x8c, 0xfb, 0xbc,
  0x70, 0x10, 0x36, 0xbe, 0x3a, 0x66, 0x5e, 0xbe, 0x66, 0x1a, 0x39, 0xbe,
  0xdc, 0x78, 0xc3, 0x3d, 0xaa, 0xe5, 0x7d, 0x3e, 0x16, 0x5b, 0x6b, 0x3e,
  0x73, 0x7f, 0xa7, 0x3d, 0xe4, 0x09, 0xfd, 0x3e, 0x82, 0x52, 0x2e, 0x3f,
  0x3a, 0x44, 0xa4, 0x3e, 0x48, 0x82, 0x5f, 0x3e, 0xb2, 0x8c, 0x05, 0x3f,
  0xf8, 0x58, 0xc6, 0x3f, 0x8a, 0x69, 0xc1, 0x3f, 0x6d, 0xc6, 0x3e, 0x40,
  0xd1, 0xcd, 0x80, 0x3f, 0x46, 0x2e, 0xf5, 0x3f, 0xfb, 0x8e, 0x8c, 0x3f,
  0xb0, 0x09, 0x83, 0x3f, 0x22, 0x01, 0x85, 0x3f, 0xe7, 0xb0, 0x8f, 0x3f,
  0x05, 0xcd, 0x63, 0x3f, 0x02, 0x9f, 0x12, 0x40, 0x79, 0x7f, 0x7c, 0x3f,
  0x60, 0xa8, 0x63, 0x3e, 0x3a, 0xe0, 0x0b, 0x3f, 0xa6, 0xe4, 0xa1, 0x3e,
  0x47, 0x4a, 0x57, 0x3e, 0x80, 0x2f, 0x47, 0x3e, 0xe0, 0x6b, 0xc4, 0x3e,
  0x52, 0xa4, 0xc8, 0x3e, 0x6a, 0xaf, 0x17, 0x3f, 0x60, 0xbf, 0x0a, 0x3f,
  0x82, 0x36, 0xbd, 0x3e, 0xe5, 0x5f, 0xc3, 0x3e, 0x11, 0x2c, 0xec, 0x3d,
  0x56, 0xa6, 0x83, 0x3e, 0xc5, 0x90, 0xfb, 0x3d, 0x8b, 0x47, 0x3d, 0x3e,
  0xb0, 0x57, 0x17, 0x3e, 0xf9, 0xf3, 0xf2, 0x3f, 0x9c, 0x42, 0x33, 0x3f,
  0x71, 0x05, 0x54, 0x3e, 0xca, 0x52, 0xff, 0xbd, 0x00, 0x83, 0x28, 0xbe,
  0xb7, 0xf4, 0x62, 0x3e, 0x39, 0xb8, 0x26, 0x3d, 0xe4, 0x19, 0xa3, 0x3d,
  0x80, 0xf0, 0x6b, 0xbe, 0xf6, 0xd5, 0x4b, 0x3f, 0xcb, 0x6d, 0x01, 0xc0,
  0x1a, 0x1c, 0x34, 0x3e, 0xa7, 0x72, 0x01, 0xc0, 0xbc, 0xb0, 0x6c, 0x3f,
  0x41, 0x8d, 0x2a, 0xbf, 0xd6, 0xbb, 0x63, 0xbe, 0x87, 0x80, 0x44, 0xbf,
  0x82, 0xd8, 0x51, 0x3e, 0x71, 0x41, 0xdb, 0xbf, 0x10, 0x48, 0x85, 0x3f,
  0xe1, 0x90, 0xb8, 0x3e, 0x85, 0x8f, 0x5d, 0x3e, 0x61, 0x6f, 0xcb, 0x3e,
  0xf5, 0xb2, 0x2b, 0x3c, 0x61, 0x1f, 0xae, 0x3e, 0xe2, 0x98, 0xda, 0x3d,
  0x38, 0x8a, 0x17, 0x3e, 0xdf, 0x07, 0xc3, 0x3e, 0xdc, 0x7c, 0xc2, 0xbe,
  0xea, 0x43, 0xf4, 0x3e, 0xfd, 0x1c, 0xca, 0x3e, 0x4a, 0xe6, 0x66, 0x3e,
  0x82, 0x94, 0xca, 0x3d, 0xc0, 0x23, 0x89, 0x3d, 0x7a, 0x88, 0x3e, 0xbe,
  0x25, 0xb6, 0x1b, 0x3f, 0xcf, 0x36, 0x16, 0xc0, 0x92, 0xb9, 0xbd, 0x3f,
  0x0b, 0xb6, 0x0e, 0x3e, 0x07, 0x8c, 0x13, 0x3f, 0xc9, 0xda, 0xfc, 0x3e,
  0x3c, 0x00, 0x01, 0x3f, 0xc7, 0x74, 0xb5, 0x3d, 0x47, 0x55, 0x48, 0x3e,
  0xae, 0x5a, 0xea, 0x3f, 0x24, 0x1a, 0x33, 0x40, 0x73, 0x7e, 0x12, 0x40,
  0x08, 0xf4, 0x91, 0x3f, 0xa9, 0x55, 0xec, 0x3f, 0x84, 0xbc, 0xd4, 0x3f,
  0x3f, 0x54, 0x92, 0x3f, 0x8c, 0x09, 0x9c, 0x3f, 0xff, 0x69, 0xfe, 0x3e,
  0xa8, 0x68, 0x64, 0x3f, 0xce, 0x04, 0xd6, 0x3f, 0x44, 0x67, 0x00, 0x40,
  0xa7, 0x70, 0x83, 0x3c, 0x36, 0xeb, 0x0a, 0x3e, 0x5b, 0x77, 0xfa, 0x3d,
  0xd5, 0xe0, 0xbb, 0x3e, 0x3f, 0xbd, 0x08, 0x3e, 0x01, 0xa4, 0xbe, 0x3d,
  0xb9, 0x1c, 0xb9, 0x3e, 0x93, 0xad, 0x48, 0x3f, 0xaf, 0x4e, 0x16, 0x3f,
  0x28, 0x44, 0x31, 0x3e, 0x44, 0xf4, 0x07, 0x3f, 0x1d, 0xac, 0x95, 0x3e,
  0xdf, 0x37, 0x65, 0x3e, 0x58, 0x38, 0x0e, 0x3e, 0x41, 0xc3, 0x30, 0xbe,
  0x2c, 0x3e, 0x01, 0x3f, 0xf7, 0x69, 0x88, 0x3f, 0x7f, 0x3b, 0x14, 0x40,
  0x96, 0x24, 0xa4, 0x3e, 0xc2, 0xda, 0x1f, 0x3f, 0xa8, 0x6d, 0x34, 0x3f,
  0xd2, 0xcc, 0x1d, 0x3f, 0x5a, 0x4a, 0xac, 0x3e, 0x48, 0x7c, 0x07, 0x3f,
  0x5d, 0x16, 0x4f, 0xbf, 0x68, 0x1f, 0x0d, 0xc0, 0xbe, 0xd5, 0x83, 0x3e,
  0xde, 0x71, 0xbf, 0xbe, 0x9c, 0x35, 0x96, 0x3e, 0x53, 0x64, 0xf2, 0xbf,
  0x10, 0x66, 0x83, 0x3e, 0xd7, 0xf9, 0x66, 0xbd, 0x92, 0x78, 0x47, 0x3f,
  0x61, 0xdc, 0x5e, 0xbf, 0x4b, 0x45, 0xc5, 0x3e, 0x38, 0x44, 0xd9, 0xbf,
  0xa8, 0x0b, 0xa9, 0x3e, 0xcf, 0x99, 0x8c, 0x3e, 0x1b, 0x35, 0x10, 0x3f,
  0x4d, 0xa4, 0x29, 0x3f, 0x8f, 0xda, 0x05, 0x3f, 0xcb, 0xbb, 0xc2, 0x3e,
  0xa0, 0x4f, 0x44, 0x3e, 0x31, 0xb3, 0x91, 0x3e, 0xf7, 0x23, 0x16, 0x3f,
  0x1d, 0x33, 0x2c, 0x3f, 0x73, 0xda, 0xa1, 0x3e, 0x3b, 0x8b, 0xda, 0x3e,
  0xa3, 0xfc, 0x50, 0x3e, 0x94, 0xcf, 0x6e, 0x3e, 0xdf, 0xed, 0x9d, 0xbd,
  0x99, 0x56, 0x8c, 0xbe, 0x37, 0xe4, 0x8b, 0x3f, 0xb2, 0xef, 0xfc, 0xbf,
  0x26, 0x9d, 0x60, 0xbc, 0x2d, 0x78, 0x7c, 0xbd, 0xe3, 0x3e, 0xf2, 0x3d,
  0x9d, 0x24, 0xc1, 0x3d, 0x17, 0x88, 0xc9, 0x3d, 0xf5, 0x5f, 0x72, 0x3e,
  0x1f, 0x7f, 0x4e, 0x3f, 0x94, 0xba, 0x0a, 0x40, 0x69, 0xf1, 0xc1, 0xbe,
  0x02, 0xe3, 0x47, 0x3f, 0x17, 0x1b, 0x41, 0xbf, 0x8b, 0x2c, 0xe3, 0x3f,
  0x7a, 0x22, 0x92, 0xbe, 0x99, 0x30, 0x4d, 0x3e, 0x7e, 0x69, 0x14, 0xbf,
  0x26, 0x3b, 0x59, 0x3f, 0xd6, 0xaa, 0x16, 0xbf, 0x26, 0x45, 0xab, 0x3f,
  0x2e, 0x23, 0x12, 0x3e, 0x9d, 0x44, 0xaa, 0xbd, 0x8d, 0x10, 0x23, 0xbd,
  0x29, 0x80, 0xd7, 0x38, 0xc6, 0xa7, 0x57, 0xbe, 0xb5, 0x9a, 0x11, 0xbe,
  0x8f, 0x59, 0x9d, 0x3d, 0x5f, 0xd4, 0xad, 0x3d, 0x98, 0x30, 0xbb, 0x3d,
  0x01, 0xee, 0xf7, 0xbd, 0xa5, 0xc8, 0xfe, 0xbc, 0xc5, 0xce, 0x0e, 0xbe,
  0x24, 0x15, 0x05, 0xbe, 0xca, 0x7c, 0x12, 0x3e, 0x36, 0x5f, 0x65, 0xbe,
  0x6b, 0x88, 0x25, 0x3f, 0xeb, 0x7e, 0x8d, 0xbf, 0xee, 0xa4, 0x25, 0x40,
  0xf8, 0x24, 0xf9, 0x3d, 0xc6, 0x35, 0x11, 0x3e, 0xf4, 0x6b, 0x3c, 0x3e,
  0x9a, 0x2c, 0xb5, 0xbd, 0x18, 0xda, 0xb9, 0xbd, 0xc2, 0x37, 0x7a, 0xbe,
  0xa2, 0x6a, 0x87, 0xbd, 0x2c, 0xe7, 0x37, 0xbe, 0xe2, 0xfb, 0x2a, 0x3e,
  0xae, 0xb6, 0x26, 0xbe, 0x3e, 0x8b, 0x10, 0x3e, 0x34, 0xbd, 0x30, 0x3e,
  0x54, 0x66, 0x22, 0xbe, 0x44, 0xf7, 0xb1, 0x3d, 0x46, 0xf8, 0x79, 0x3e,
  0xd8, 0xc4, 0x45, 0x3d, 0x20, 0x09, 0x81, 0x3c, 0xec, 0x72, 0x06, 0xbe,
  0x88, 0x6f, 0x2c, 0x3d, 0x3c, 0xe4, 0x7b, 0xbe, 0xc0, 0xc1, 0x32, 0x3c,
  0xc0, 0x50, 0x67, 0xbc, 0x98, 0xc0, 0x19, 0x3e, 0xb0, 0xec, 0x38, 0x3d,
  0x9c, 0xba, 0x56, 0x3e, 0x16, 0xc0, 0x80, 0xbd, 0xea, 0x35, 0xba, 0xbd,
  0xfe, 0xa5, 0x7d, 0xbe, 0x18, 0x45, 0x99, 0xbd, 0xe6, 0x70, 0x7d, 0xbe,
  0xd2, 0x52, 0x52, 0xbe, 0x58, 0x28, 0x5e, 0x3d, 0x79, 0x90, 0x06, 0xbe,
  0x00, 0xa3, 0xf1, 0x3d, 0x70, 0x6e, 0xfb, 0x3c, 0xc5, 0xd4, 0x7a, 0xbe,
  0x97, 0x9a, 0x82, 0xbe, 0x69, 0x67, 0x1b, 0x3e, 0xe9, 0x2d, 0x28, 0x3e,
  0x4e, 0x28, 0x5e, 0x3e, 0xe0, 0xdb, 0xab, 0xbd, 0x90, 0x4c, 0x1c, 0xbe,
  0x49, 0x74, 0x2f, 0x3e, 0x12, 0x98, 0x54, 0xbe, 0x3c, 0x1a, 0x3a, 0x3e,
  0x31, 0xe5, 0xe6, 0xba, 0xec, 0x0a, 0x99, 0xbc, 0x2d, 0x54, 0x84, 0xbe,
  0x05, 0x5e, 0x45, 0xbe, 0x0f, 0x69, 0xe4, 0x3d, 0x15, 0x7a, 0xc2, 0x3d,
  0x68, 0x2d, 0x3d, 0xbe, 0xcc, 0xe0, 0x6d, 0xbe, 0xfe, 0x80, 0x26, 0x3e,
  0x00, 0x52, 0x29, 0x3e, 0x34, 0x27, 0xac, 0x3c, 0x63, 0x8b, 0x5d, 0xbe,
  0x34, 0x0c, 0x0d, 0xbd, 0x06, 0x98, 0x20, 0x3e, 0x16, 0x87, 0x19, 0xbe,
  0x9a, 0x91, 0x3f, 0xbe, 0xea, 0x86, 0x02, 0x3d, 0x23, 0x51, 0xa4, 0xbd,
  0xa8, 0xdd, 0x54, 0x3d, 0xc5, 0xec, 0xad, 0xbd, 0xa0, 0xcc, 0x0e, 0x3e,
  0x04, 0xd3, 0x09, 0xbd, 0x6c, 0xa2, 0xee, 0xbd, 0xf4, 0x44, 0xea, 0x3d,
  0x24, 0x59, 0x8e, 0x3b, 0xd3, 0xc6, 0x52, 0xbe, 0x24, 0xc4, 0x3f, 0x3e,
  0xed, 0x37, 0x85, 0xbe, 0x9a, 0x4b, 0x05, 0x3e, 0xa4, 0x44, 0x35, 0x3e,
  0x4c, 0xba, 0xcd, 0x3d, 0x42, 0x56, 0x47, 0xbe, 0xb4, 0x5e, 0x09, 0xbd,
  0xdc, 0x84, 0x0d, 0x3e, 0x40, 0x95, 0x4d, 0x3e, 0xb0, 0x5b, 0xfe, 0xbd,
  0x74, 0x7f, 0xc2, 0x3d, 0x64, 0xbb, 0x3d, 0xbe, 0x61, 0x69, 0x59, 0xbe,
  0x0f, 0x21, 0x58, 0xbe, 0x9e, 0x7c, 0x66, 0x3e, 0xb8, 0x1f, 0x19, 0x3e,
  0x0b, 0xd5, 0x1b, 0xbe, 0x9d, 0xad, 0x7e, 0xbe, 0x00, 0xa3, 0xd3, 0xbd,
  0xa4, 0x51, 0x4f, 0xbe, 0x00, 0x63, 0x57, 0xbc, 0xf9, 0x53, 0x7a, 0xbe,
  0x22, 0x9e, 0x65, 0x3e, 0x6e, 0x38, 0x38, 0x3e, 0x76, 0x2e, 0xae, 0xbd,
  0xa6, 0x65, 0x67, 0xbe, 0x46, 0x9b, 0xa1, 0xbd, 0xea, 0xdf, 0x49, 0xbe,
  0x31, 0x41, 0x81, 0x3e, 0x78, 0x48, 0x88, 0x3d, 0x70, 0x85, 0xee, 0xbd,
  0x29, 0x37, 0x85, 0x3e, 0x80, 0xcb, 0xe7, 0x3b, 0x62, 0xf4, 0x85, 0xbd,
  0xf2, 0x78, 0x74, 0x3e, 0x12, 0x3b, 0x10, 0x3e, 0xf4, 0xd2, 0xc7, 0x3d,
  0xe2, 0x90, 0x76, 0x3e, 0xb0, 0x6f, 0x82, 0x3c, 0xe0, 0x8e, 0x61, 0x3e,
  0x5f, 0x15, 0x5d, 0xbe, 0xea, 0xfe, 0x4a, 0xbe, 0x70, 0x7b, 0xba, 0x3c,
  0xcb, 0xf2, 0x7c, 0xbe, 0x58, 0x59, 0x34, 0xbe, 0xa0, 0x13, 0xee, 0xbc,
  0x98, 0x79, 0x36, 0xbe, 0xa0, 0x82, 0x46, 0xbc, 0x0e, 0xab, 0x5c, 0x3e,
  0x50, 0x45, 0x43, 0xbd, 0x88, 0x2c, 0x73, 0x3d, 0x59, 0x22, 0x0a, 0xbe,
  0x5e, 0x8f, 0x6d, 0x3e, 0x56, 0x57, 0x2d, 0x3e, 0x10, 0x60, 0xe7, 0x3c,
  0x57, 0x95, 0x4b, 0xbe, 0xfb, 0x3f, 0x85, 0xbe, 0x88, 0x2d, 0x0a, 0x3d,
  0x7a, 0x96, 0x3c, 0x3e, 0x68, 0x44, 0xc7, 0x3d, 0xda, 0x0b, 0x6f, 0x3e,
  0x30, 0x43, 0x5b, 0xbd, 0xc9, 0x02, 0x79, 0xbe, 0xca, 0x26, 0x4e, 0xbe,
  0x73, 0x9f, 0x83, 0xbe, 0xf0, 0x0d, 0x6c, 0x3d, 0x38, 0x28, 0x5d, 0x3d,
  0xe8, 0x40, 0x4d, 0x3d, 0xdc, 0x5b, 0x03, 0xbd, 0xd5, 0xff, 0x86, 0x3e,
  0xba, 0x43, 0x45, 0x3e, 0xd8, 0x9c, 0x6a, 0xbe, 0xc4, 0x05, 0xd5, 0x3d,
  0x56, 0x8f, 0x9d, 0xbd, 0xb8, 0xa7, 0x5d, 0xbe, 0xb5, 0xf2, 0x51, 0xbe,
  0x90, 0xcf, 0xfb, 0x3c, 0x73, 0x3e, 0x84, 0xbe, 0x09, 0xdb, 0x84, 0x3e,
  0xb4, 0x43, 0xad, 0x3d, 0xf4, 0xd9, 0x8b, 0x3d, 0x18, 0x6f, 0x46, 0x3d,
  0x78, 0x9c, 0x7a, 0x3d, 0x16, 0xca, 0x81, 0xbe, 0x94, 0xe1, 0x40, 0xbe,
  0xa0, 0x0c, 0x17, 0x3c, 0x00, 0x76, 0xad, 0x3b, 0x66, 0x7f, 0x64, 0x3e,
  0xe1, 0xa4, 0x53, 0xbe, 0x72, 0xee, 0x7e, 0x3e, 0x4c, 0x09, 0x7c, 0xbe,
  0xb8, 0x06, 0xf5, 0x3d, 0x60, 0xa5, 0xbb, 0x3c, 0x37, 0x4f, 0x4a, 0xbe,
  0x90, 0x04, 0xfd, 0xbc, 0xc5, 0xae, 0x4e, 0xbe, 0x60, 0x2e, 0x54, 0x3d,
  0xec, 0x3f, 0x1b, 0x3e, 0x60, 0x80, 0x59, 0xbe, 0x44, 0x85, 0x70, 0xbe,
  0x60, 0x79, 0x22, 0x3d, 0xa8, 0x76, 0xec, 0xbd, 0xa4, 0x84, 0x44, 0xbe,
  0xc0, 0xb4, 0x37, 0x3c, 0x46, 0xa0, 0x90, 0xbd, 0x50, 0x6b, 0xdc, 0x3d,
  0x4e, 0xfc, 0x4a, 0x3e, 0x7e, 0x1a, 0x0d, 0x3e, 0xbf, 0x16, 0x82, 0xbe,
  0xc4, 0xec, 0x2c, 0xbc, 0xc7, 0xab, 0x8f, 0xbc, 0x90, 0x68, 0x5c, 0xbe,
  0xe3, 0x75, 0x06, 0x3e, 0x12, 0xa3, 0x18, 0x3e, 0x6b, 0x82, 0x7a, 0x3d,
  0x5a, 0xec, 0xab, 0x3f, 0x18, 0x7b, 0x0f, 0x40, 0x4f, 0x9b, 0xfd, 0x3e,
  0x6e, 0x1e, 0x1e, 0x3f, 0xa0, 0x46, 0x5e, 0x3e, 0xb0, 0xfd, 0xe6, 0x3f,
  0x56, 0x47, 0xde, 0x3e, 0x56, 0xa6, 0xc9, 0x3e, 0x1b, 0x3e, 0x6f, 0xbd,
  0x97, 0x03, 0x3b, 0x3f, 0x61, 0x0a, 0x23, 0x3f, 0xd4, 0xc0, 0xe2, 0x3f,
  0x01, 0xbe, 0x06, 0xbe, 0xdf, 0x98, 0xbf, 0xbd, 0x82, 0xc2, 0x65, 0xbc,
  0x11, 0x5d, 0x4d, 0xbe, 0xcb, 0x0a, 0xa0, 0xbe, 0xeb, 0xab, 0xf6, 0xbd,
  0x6c, 0xf7, 0x0b, 0x3d, 0x8d, 0x7b, 0x5c, 0x3e, 0x73, 0xcb, 0x40, 0xbd,
  0x39, 0x6e, 0x4c, 0x3e, 0x55, 0x08, 0x1b, 0xbc, 0x83, 0x73, 0xa4, 0x3d,
  0x5c, 0xc1, 0xb3, 0x3d, 0x15, 0x4a, 0x17, 0x3e, 0xa4, 0x5c, 0xa1, 0xbc,
  0x7d, 0x2f, 0xaf, 0x3e, 0xd6, 0x2e, 0x9e, 0xbe, 0xa5, 0x48, 0x23, 0x40,
  0xef, 0xc5, 0x29, 0x3d, 0xc4, 0xee, 0xc0, 0xbd, 0x8d, 0x95, 0xf7, 0x3d,
  0x63, 0x37, 0x27, 0x3e, 0x12, 0xaf, 0x49, 0x3e, 0x46, 0x77, 0xc8, 0x3c,
  0xca, 0x44, 0x93, 0x3f, 0xbf, 0x5b, 0xec, 0x3f, 0x52, 0x7d, 0xbf, 0x3e,
  0x30, 0x7f, 0x9f, 0x3e, 0x1d, 0x1e, 0xc8, 0x3d, 0xfc, 0xec, 0xda, 0x3f,
  0xaf, 0x8b, 0x86, 0x3e, 0xc0, 0x68, 0x8a, 0x3e, 0x05, 0x90, 0xb8, 0xbd,
  0xd1, 0x8e, 0x59, 0x3f, 0x81, 0x69, 0x61, 0x3e, 0x8d, 0x9e, 0xa7, 0x3f,
  0xf9, 0xe9, 0x23, 0xbe, 0x74, 0xbd, 0xc0, 0xbd, 0x4b, 0x4e, 0xe6, 0x3d,
  0x27, 0xd7, 0xf5, 0x3d, 0x41, 0x92, 0x2b, 0x3e, 0x45, 0x9a, 0x65, 0xbe,
  0xad, 0xe1, 0x5a, 0xbe, 0x81, 0x09, 0xba, 0x3d, 0xb6, 0x81, 0x5d, 0x3e,
  0x44, 0xee, 0x7f, 0xbd, 0xb6, 0xf8, 0x49, 0x3e, 0x05, 0x40, 0x76, 0xbd,
  0xd6, 0x36, 0x70, 0x3d, 0x12, 0x64, 0x3f, 0xbe, 0xcd, 0x1c, 0x87, 0xbe,
  0x4d, 0x36, 0x58, 0x3e, 0xab, 0xa9, 0x29, 0xbf, 0x91, 0x7c, 0xcf, 0x3f,
  0x00, 0x39, 0x7c, 0x3e, 0xe2, 0xb2, 0xd9, 0x3e, 0x98, 0xae, 0xe2, 0x3d,
  0x39, 0x50, 0xc1, 0x3e, 0xc2, 0x49, 0xf2, 0x3e, 0x14, 0xbd, 0xd6, 0x3e,
  0xbf, 0xee, 0xad, 0xbd, 0xb2, 0x59, 0xa9, 0x3f, 0x79, 0x54, 0xe6, 0xbf,
  0x54, 0x0e, 0xac, 0x3d, 0xe8, 0x84, 0xb3, 0xbf, 0x86, 0x5d, 0x98, 0x3f,
  0xf2, 0x3d, 0x20, 0xbf, 0xa6, 0x5c, 0xef, 0x3d, 0xee, 0xbe, 0xcc, 0xbe,
  0xa8, 0xa0, 0xc6, 0x3d, 0xe0, 0x32, 0xce, 0xbf, 0xc0, 0xb0, 0x2b, 0x3f,
  0xb2, 0x9b, 0x73, 0x3e, 0x1a, 0xba, 0x17, 0x3e, 0x42, 0x46, 0x41, 0x3e,
  0x78, 0x1d, 0x8e, 0x3e, 0xbd, 0x1e, 0xc5, 0x3e, 0xd9, 0x6b, 0xa3, 0x3d,
  0x43, 0x5f, 0x3e, 0x3e, 0x57, 0xf0, 0x94, 0x3d, 0x85, 0xab, 0xf3, 0xbd,
  0x72, 0x8e, 0xfa, 0x3e, 0xce, 0xfc, 0xd9, 0x3e, 0x29, 0x4d, 0x13, 0x3f,
  0xca, 0x5a, 0xed, 0x3c, 0x0f, 0xdb, 0xf6, 0xbd, 0x8c, 0x78, 0x32, 0x3e,
  0x57, 0x3e, 0x8a, 0x3e, 0x4b, 0x3d, 0x0f, 0xc0, 0x09, 0x3a, 0xef, 0x3f,
  0xb0, 0x09, 0xf7, 0x3c, 0xd5, 0x55, 0xea, 0x3d, 0xa8, 0xe4, 0x80, 0xbe,
  0x76, 0xb8, 0x6f, 0x3e, 0x4f, 0x58, 0x77, 0x3c, 0xdf, 0xb7, 0x8b, 0x3e,
  0xb5, 0x6b, 0xaf, 0x3d, 0x3c, 0x44, 0x74, 0x3f, 0xb3, 0x96, 0x0a, 0xc0,
  0xec, 0x9b, 0xc3, 0x3d, 0xb9, 0xaa, 0xea, 0xbf, 0x24, 0xdd, 0x79, 0x3f,
  0x98, 0x62, 0x50, 0xbf, 0xcd, 0x93, 0x8e, 0xbe, 0xa2, 0xff, 0xc5, 0xbe,
  0xd4, 0x11, 0xa0, 0x3e, 0x40, 0xf8, 0xd1, 0xbf, 0xba, 0x0b, 0x32, 0x3f,
  0x1c, 0x2d, 0xaa, 0x3e, 0x0a, 0x99, 0x0c, 0xbe, 0x6d, 0x7d, 0x51, 0x3e,
  0x57, 0x52, 0xc7, 0x3e, 0x70, 0xe1, 0xde, 0x3e, 0x38, 0x1a, 0xbd, 0x3e,
  0x1a, 0x2c, 0xde, 0xbb, 0x6d, 0x4d, 0xaa, 0x3e, 0x93, 0x91, 0xda, 0xbe,
  0xfc, 0xc8, 0x12, 0x3e, 0xf7, 0xbc, 0x79, 0xba, 0x3d, 0xd4, 0x98, 0x3d,
  0x7a, 0x29, 0x8d, 0x3d, 0x1a, 0xd4, 0x9e, 0xbd, 0x52, 0x0d, 0x89, 0x3d,
  0x4f, 0x1d, 0xee, 0x3e, 0xf0, 0x0f, 0xf7, 0xbf, 0xca, 0xd6, 0xa3, 0x3f,
  0x3b, 0x75, 0x55, 0xbe, 0x40, 0x38, 0xab, 0x3b, 0xc4, 0x62, 0xd0, 0x3d,
  0xf4, 0xe8, 0x83, 0xbe, 0xea, 0x87, 0xaf, 0xbd, 0xa4, 0x49, 0x82, 0xbe,
  0xac, 0xc5, 0xb5, 0xbd, 0xd4, 0x84, 0x77, 0xbe, 0x78, 0x96, 0x38, 0x3d,
  0x77, 0x7c, 0x81, 0x3e, 0x60, 0xfd, 0xb1, 0x3d, 0x7c, 0xe6, 0x41, 0xbd,
  0xc6, 0x4a, 0x53, 0x3e, 0x0c, 0xde, 0x0f, 0xbe, 0x0e, 0xde, 0x2a, 0x3e,
  0xc7, 0x73, 0x02, 0xbe, 0xd3, 0x3c, 0x85, 0x3e, 0xce, 0x2a, 0x3d, 0x3e,
  0xc6, 0xfe, 0x60, 0xbe, 0x08, 0xba, 0x82, 0x3d, 0xb4, 0xcb, 0xe2, 0xbd,
  0xa6, 0xed, 0x3b, 0x3e, 0x05, 0x8a, 0x85, 0x3e, 0xb4, 0x20, 0x39, 0x3e,
  0x00, 0x7a, 0x7c, 0x3b, 0xe6, 0x5a, 0x82, 0xbe, 0x00, 0x3d, 0x44, 0x3d,
  0xc0, 0x1e, 0x70, 0xbd, 0x6e, 0xd9, 0x13, 0x3e, 0xde, 0xda, 0xa6, 0xbd,
  0x50, 0x72, 0x23, 0xbe, 0x24, 0x08, 0x78, 0xbd, 0x45, 0x0d, 0x82, 0xbe,
  0xe4, 0xa9, 0x20, 0xbd, 0x73, 0x92, 0x50, 0xbe, 0xf0, 0xc9, 0xfc, 0x3d,
  0xe2, 0xfc, 0x10, 0x3e, 0x28, 0xa9, 0x43, 0x3e, 0xef, 0x2a, 0x28, 0x3e,
  0xcc, 0x84, 0x8b, 0x3d, 0x17, 0xfc, 0xde, 0x3e, 0x5e, 0x56, 0x02, 0x3f,
  0xdd, 0x23, 0x79, 0xbf, 0xdd, 0x5f, 0xe5, 0xbf, 0x2d, 0xc7, 0x8b, 0xbd,
  0x1d, 0xde, 0x71, 0xbe, 0x55, 0xe2, 0x85, 0x3d, 0x07, 0x82, 0xc2, 0xbf,
  0x35, 0x2f, 0xe5, 0xbd, 0x25, 0x27, 0xeb, 0xbe, 0xf8, 0x2c, 0xcd, 0x3d,
  0x57, 0x19, 0xc1, 0xbe, 0x9f, 0x02, 0x31, 0xbd, 0x3a, 0x54, 0x8f, 0xbf,
  0x65, 0x31, 0xa3, 0x3e, 0x2e, 0x5b, 0xf9, 0x3e, 0xcc, 0xd0, 0x65, 0x3d,
  0x45, 0xb2, 0x5d, 0x3e, 0x5d, 0x38, 0xf6, 0x3e, 0x17, 0xfa, 0xcd, 0x3e,
  0xe5, 0x06, 0x70, 0x3e, 0x0a, 0x0b, 0xc1, 0x3d, 0xf7, 0xea, 0xcb, 0x3e,
  0x83, 0xd2, 0x31, 0xbb, 0x66, 0x51, 0xec, 0x3e, 0xbc, 0x7b, 0xd2, 0x3e,
  0x17, 0xfe, 0x29, 0x3e, 0x1d, 0xef, 0xbf, 0xbd, 0xd0, 0xff, 0x5b, 0xbe,
  0xac, 0x88, 0xe9, 0xbe, 0x12, 0xeb, 0x67, 0x3f, 0x41, 0x1c, 0xa5, 0xbf,
  0x37, 0xaa, 0x69, 0x3e, 0xf0, 0x65, 0xf2, 0x3c, 0xbd, 0xe0, 0x0e, 0xbe,
  0x33, 0xcb, 0x57, 0x3e, 0xd1, 0x17, 0x00, 0xbe, 0x71, 0xbf, 0xbf, 0x3d,
  0x4b, 0xdc, 0xe8, 0xbf, 0x82, 0xd0, 0x10, 0xc0, 0x11, 0xbe, 0x21, 0xc0,
  0x88, 0x8c, 0x86, 0xbf, 0x09, 0xf4, 0xe9, 0xbf, 0x61, 0x56, 0xe3, 0xbf,
  0xd3, 0x00, 0x66, 0xbf, 0x60, 0x49, 0x50, 0xbf, 0xe7, 0xfd, 0xd7, 0xbe,
  0x0a, 0xf3, 0x8e, 0xbf, 0x3e, 0xbc, 0x05, 0xc0, 0x43, 0x74, 0xea, 0xbf,
  0xd9, 0x13, 0x92, 0x3e, 0xfa, 0x89, 0x8c, 0x3e, 0xc7, 0x32, 0xb8, 0x3e,
  0x96, 0x52, 0xe8, 0xbd, 0x64, 0x1f, 0xa6, 0x3e, 0x49, 0x83, 0xa0, 0x3e,
  0x66, 0xd4, 0xaa, 0x3d, 0xc4, 0x79, 0xa7, 0xbe, 0xdd, 0xd6, 0x1e, 0x3d,
  0x05, 0x3f, 0x01, 0xbe, 0x6e, 0xef, 0x56, 0x3c, 0x9c, 0x19, 0x95, 0x3c,
  0x40, 0xe5, 0xe7, 0x3d, 0x92, 0xef, 0x25, 0x3e, 0x85, 0xf0, 0x6e, 0x3d,
  0x7d, 0xea, 0x10, 0xbf, 0x70, 0xe4, 0xeb, 0xbf, 0x3d, 0xa1, 0xed, 0xbf,
  0x7a, 0x57, 0x30, 0xbe, 0x78, 0xc4, 0xa5, 0xbd, 0x64, 0x73, 0xab, 0x3d,
  0x14, 0x3d, 0xab, 0x3d, 0x28, 0x1d, 0xf5, 0x3d, 0x70, 0xfa, 0x02, 0xbe,
  0x28, 0xcd, 0x6d, 0x3e, 0xe6, 0x56, 0x74, 0xbe, 0xdb, 0x00, 0x80, 0x3e,
  0x16, 0xc2, 0x65, 0xbe, 0x4b, 0x65, 0x84, 0x3e, 0x88, 0x72, 0x7a, 0x3d,
  0x00, 0xce, 0x0d, 0xbc, 0x50, 0x30, 0x10, 0x3e, 0xf8, 0x03, 0x04, 0x3d,
  0x50, 0x25, 0xdf, 0xbc, 0xc6, 0x49, 0xac, 0xbd, 0x3a, 0x4e, 0x28, 0xbe,
  0x5c, 0x62, 0x72, 0xbe, 0xd0, 0x90, 0x59, 0x3d, 0x5a, 0x86, 0x46, 0xbe,
  0xa4, 0x5d, 0x40, 0xbd, 0xd2, 0x43, 0x55, 0xbe, 0x50, 0x67, 0xde, 0x3c,
  0xf8, 0x95, 0x1d, 0xbd, 0x02, 0x96, 0x70, 0xbe, 0x68, 0xed, 0x41, 0xbd,
  0xaa, 0x05, 0x0c, 0xbe, 0x63, 0x88, 0x80, 0x3e, 0xde, 0xa0, 0x67, 0xbe,
  0x14, 0x84, 0x89, 0x3d, 0x00, 0x4d, 0xc5, 0xbb, 0xc8, 0xa9, 0xd9, 0x3d,
  0x16, 0xe9, 0x2e, 0x3e, 0xd4, 0xe7, 0xb7, 0x3d, 0x9a, 0xaa, 0x71, 0x3e,
  0x6c, 0xf1, 0x03, 0xbe, 0x08, 0xe1, 0xcd, 0x3d, 0xc8, 0x71, 0x72, 0xbd,
  0x26, 0x2a, 0x1b, 0xbe, 0x70, 0x60, 0xd8, 0x3c, 0x7e, 0x1e, 0x08, 0x3e,
  0x98, 0x87, 0xb5, 0xbd, 0x88, 0x67, 0x1b, 0x3d, 0x70, 0x6e, 0xd8, 0x3d,
  0xd0, 0x12, 0xa8, 0x3c, 0xc6, 0x19, 0x25, 0x3e, 0x34, 0x89, 0x0d, 0xbe,
  0x22, 0x7d, 0x25, 0xbe, 0xb2, 0xe5, 0x2f, 0x3e, 0x62, 0x41, 0x66, 0xbe,
  0xee, 0x1e, 0x7f, 0x3e, 0x75, 0xf5, 0x5d, 0xbe, 0x6b, 0xf6, 0x61, 0xbe,
  0x2e, 0x5d, 0x15, 0xbe, 0xb8, 0x92, 0x25, 0xbd, 0x58, 0x29, 0x08, 0x3d,
  0xf4, 0xce, 0x0c, 0xbe, 0x09, 0x63, 0x3d, 0xbe, 0x20, 0x88, 0x39, 0x3e,
  0xa2, 0x5e, 0xae, 0xbd, 0x1c, 0x5f, 0x2d, 0xbd, 0x1a, 0xca, 0x1a, 0x3e,
  0x60, 0x94, 0x2f, 0x3c, 0xa8, 0x66, 0x06, 0x3d, 0xf2, 0xac, 0x92, 0xbd,
  0x28, 0xcf, 0x5e, 0x3e, 0xac, 0x6a, 0xe5, 0x3d, 0xd0, 0x86, 0x01, 0xbd,
  0x65, 0x5d, 0x32, 0xbe, 0xfc, 0xe7, 0x10, 0x3e, 0xaa, 0xd5, 0x2c, 0xbe,
  0x76, 0x5d, 0x63, 0xbe, 0x20, 0x52, 0x1a, 0xbc, 0xe7, 0x32, 0x2d, 0xbe,
  0x12, 0x49, 0x9f, 0xbd, 0x50, 0x0b, 0xc4, 0x3c, 0xc8, 0x66, 0x06, 0x3d,
  0x86, 0xb6, 0xf2, 0xbd, 0x3c, 0x93, 0x31, 0x3e, 0x5a, 0x27, 0x75, 0xbe,
  0xe8, 0x68, 0x35, 0x3e, 0xea, 0xcf, 0xde, 0xbd, 0x1c, 0x0e, 0xa7, 0x3d,
  0xe4, 0xf8, 0x0e, 0xbd, 0x02, 0x2c, 0xc9, 0xbd, 0x68, 0xc6, 0x5d, 0x3e,
  0xda, 0x15, 0x18, 0xbe, 0x4c, 0x17, 0x4c, 0x3e, 0x02, 0x37, 0xe0, 0xbd,
  0x91, 0x1d, 0x84, 0x3e, 0xa8, 0xdb, 0x4d, 0x3e, 0x20, 0x57, 0x75, 0x3c,
  0x36, 0x43, 0x7a, 0x3e, 0xc4, 0x50, 0x4f, 0xbe, 0x26, 0x8d, 0x17, 0xbe,
  0xbc, 0xe8, 0x86, 0xbe, 0xaf, 0xbe, 0x80, 0x3e, 0x3e, 0x21, 0x36, 0xbe,
  0x89, 0x34, 0x59, 0xbe, 0x62, 0xc8, 0x0c, 0x3e, 0x72, 0x80, 0x80, 0xbe,
  0x30, 0xa4, 0x6c, 0xbc, 0x96, 0xa3, 0xa8, 0xbd, 0x88, 0x07, 0xfc, 0xbc,
  0xfa, 0x14, 0x3b, 0xbe, 0x78, 0x7d, 0xea, 0x3d, 0x76, 0x77, 0x10, 0x3e,
  0x18, 0xf4, 0x3e, 0xbe, 0xbc, 0xde, 0x5f, 0x3e, 0x2f, 0x18, 0x5b, 0xbe,
  0xaa, 0xff, 0x8e, 0xbd, 0xf4, 0x35, 0xb1, 0x3d, 0x0b, 0xb9, 0x81, 0xbe,
  0x12, 0x9d, 0x22, 0x3e, 0x2c, 0xd7, 0xc4, 0x3d, 0x08, 0x4d, 0x32, 0x3e,
  0x85, 0x8a, 0x43, 0xbe, 0x10, 0x0b, 0x65, 0x3e, 0x26, 0x3b, 0x7d, 0xbe,
  0x1c, 0x8f, 0x4d, 0xbe, 0xcc, 0x8a, 0x3b, 0xbe, 0xc8, 0x93, 0x1c, 0xbd,
  0x40, 0xba, 0xa6, 0xbb, 0xe8, 0xaf, 0xce, 0x3d, 0xd9, 0x75, 0x85, 0xbe,
  0xea, 0xe5, 0xf8, 0xbd, 0x94, 0x2b, 0x1d, 0xbe, 0x58, 0xdb, 0x57, 0x3d,
  0x04, 0x8d, 0x17, 0xbe, 0xe0, 0x3a, 0xb2, 0x3c, 0x66, 0x24, 0xfd, 0xbd,
  0x72, 0x70, 0x6d, 0xbe, 0x20, 0x7f, 0xcb, 0xbc, 0x30, 0x1f, 0xa9, 0x3c,
  0xe0, 0x36, 0x77, 0x3d, 0xe4, 0x57, 0xf9, 0x3d, 0xe0, 0xb3, 0xcf, 0xbc,
  0x00, 0xd8, 0xa7, 0x3d, 0xa2, 0x7d, 0x38, 0xbe, 0xb6, 0xd1, 0x10, 0xbe,
  0x0e, 0x1a, 0x90, 0xbd, 0x9d, 0x6e, 0x4f, 0xbe, 0xe8, 0xf9, 0x8b, 0xbc,
  0xe0, 0xf6, 0x94, 0x3d, 0xb6, 0xa6, 0x4f, 0xbe, 0x64, 0x72, 0xb6, 0x3c,
  0xe1, 0x24, 0x33, 0x3e, 0x38, 0x56, 0x8d, 0x3c, 0xd4, 0x03, 0xba, 0xbd,
  0x57, 0xc4, 0xcb, 0xbf, 0x2e, 0x65, 0x26, 0xc0, 0xc8, 0x9f, 0xca, 0xbf,
  0x1b, 0xe7, 0x94, 0xbf, 0xb1, 0x25, 0x97, 0xbf, 0x47, 0x73, 0x04, 0xc0,
  0x9d, 0x06, 0x26, 0xbf, 0x6d, 0xdf, 0x21, 0xbf, 0x13, 0x88, 0xbd, 0xbc,
  0x9a, 0xc2, 0x47, 0xbf, 0xd1, 0xae, 0xc5, 0xbf, 0xf4, 0xf1, 0xcd, 0xbf,
  0x13, 0x7d, 0x19, 0x3e, 0x92, 0x61, 0x4a, 0x3c, 0x61, 0x75, 0x87, 0x3e,
  0x23, 0xa6, 0xf0, 0x3d, 0x86, 0x6f, 0x1c, 0x3e, 0x5c, 0xb8, 0x16, 0x3d,
  0x5a, 0x22, 0xc6, 0xbd, 0xeb, 0xb6, 0x6a, 0x3d, 0x9b, 0x78, 0x6f, 0xbe,
  0x53, 0xcf, 0x3a, 0x3e, 0x75, 0xa0, 0x05, 0x3e, 0x26, 0x6b, 0x99, 0x3e,
  0x81, 0x7b, 0x5f, 0x3d, 0xda, 0x1e, 0x59, 0xbe, 0xab, 0xab, 0xa0, 0xbd,
  0x5f, 0xde, 0x24, 0xbf, 0xc1, 0xc3, 0x20, 0xbf, 0x33, 0x6c, 0x21, 0xc0,
  0x24, 0x7d, 0x18, 0xbd, 0xd0, 0x09, 0x4f, 0xbe, 0x60, 0xa4, 0x5e, 0xbc,
  0x04, 0x67, 0xb5, 0x3d, 0x83, 0xf7, 0x42, 0xbe, 0x9a, 0xdc, 0x60, 0xbe,
  0xb0, 0x17, 0xa7, 0xbd, 0xd8, 0x5c, 0x7c, 0xbd, 0x50, 0x9e, 0x79, 0xbd,
  0x79, 0x1b, 0x87, 0x3e, 0xea, 0xb3, 0x3c, 0xbe, 0xf8, 0x4d, 0xe4, 0x3d,
  0x73, 0x05, 0x0c, 0xbe, 0x42, 0x7e, 0x4b, 0xbe, 0xca, 0x1c, 0x21, 0x3e,
  0xf0, 0xe2, 0x2a, 0x3d, 0xb0, 0x54, 0x42, 0x3d, 0x24, 0xec, 0xb3, 0xbd,
  0x78, 0x24, 0xe9, 0xbd, 0x80, 0x3e, 0x56, 0x3e, 0x50, 0x5f, 0xfd, 0x3c,
  0x90, 0x6b, 0x83, 0x3c, 0x66, 0xe8, 0x19, 0xbe, 0x00, 0xbf, 0x47, 0xbd,
  0x8c, 0x8f, 0xee, 0x3d, 0x9e, 0x5f, 0x16, 0x3e, 0xb0, 0x0f, 0x3d, 0xbe,
  0x1e, 0x00, 0xc1, 0xbd, 0x60, 0x82, 0x2c, 0x3d, 0xac, 0xe2, 0x0a, 0xbe,
  0x7c, 0x65, 0x54, 0x3e, 0x92, 0xce, 0x1b, 0x3e, 0x64, 0xb1, 0x8f, 0x3d,
  0xa8, 0x42, 0x57, 0xbe, 0x9c, 0x9f, 0x8d, 0x3d, 0x58, 0x46, 0x3e, 0x3e,
  0xa2, 0x46, 0x27, 0xbe, 0x66, 0x28, 0x69, 0xbe, 0x52, 0x3d, 0x14, 0xbe,
  0x80, 0x2a, 0xef, 0x3b, 0xdc, 0x2a, 0x46, 0xbe, 0x24, 0xbc, 0xde, 0x3d,
  0x00, 0x00, 0x74, 0x3b, 0xfc, 0x02, 0x3a, 0xbe, 0x4a, 0xaa, 0x11, 0xbe,
  0xc5, 0xf9, 0x74, 0xbe, 0xe0, 0x99, 0x44, 0x3c, 0x5a, 0x8a, 0x66, 0xbe,
  0xb2, 0xbf, 0x3e, 0xbe, 0xe0, 0x4b, 0xae, 0x3d, 0xf6, 0x44, 0x7a, 0x3e,
  0x5e, 0xb2, 0x36, 0xbe, 0x2c, 0xd3, 0xec, 0x3d, 0xc6, 0xe5, 0x19, 0x3e,
  0xdc, 0x23, 0x47, 0xbe, 0x98, 0xb1, 0x85, 0x3d, 0x48, 0xa5, 0x83, 0x3d,
  0x40, 0x77, 0x0a, 0x3e, 0x7e, 0x41, 0x16, 0x3e, 0x08, 0x4e, 0x12, 0x3e,
  0xc0, 0x0d, 0x13, 0xbe, 0x30, 0xdf, 0x40, 0xbe, 0xf0, 0x41, 0x25, 0x3e,
  0x38, 0xf3, 0x25, 0xbe, 0x06, 0x8b, 0x7d, 0x3e, 0x68, 0x55, 0x24, 0x3d,
  0x28, 0x45, 0xd0, 0xbc, 0xec, 0xdb, 0xf9, 0xbd, 0x2e, 0x75, 0x5b, 0x3e,
  0x3c, 0xdb, 0x4b, 0x3e, 0x56, 0x2e, 0xfd, 0xbd, 0x12, 0xa2, 0x54, 0x3e,
  0x7e, 0x89, 0x6a, 0x3e, 0x6a, 0x55, 0xbb, 0x3d, 0x99, 0x3c, 0x0d, 0xbd,
  0x9b, 0xd1, 0x5a, 0x3e, 0x65, 0x30, 0x5b, 0x3e, 0xf7, 0xe0, 0x20, 0xbe,
  0xb1, 0xda, 0x36, 0x3f, 0xa7, 0x7d, 0xe2, 0x3f, 0x4c, 0xbb, 0xd5, 0x3e,
  0xba, 0x4b, 0x8a, 0x3d, 0x5c, 0xc0, 0x0f, 0x3e, 0x61, 0x44, 0xa9, 0x3f,
  0x28, 0x2e, 0x57, 0x3e, 0xb5, 0x97, 0x0f, 0x3f, 0x67, 0x4f, 0x8e, 0x3d,
  0x8e, 0x9a, 0xb7, 0x3e, 0x7c, 0xbe, 0xb9, 0x3e, 0x93, 0x96, 0x59, 0x3f,
  0x50, 0xf2, 0x2a, 0x3e, 0x7a, 0x82, 0x57, 0x3e, 0xa2, 0x9e, 0x1c, 0x3e,
  0x51, 0x7b, 0x1d, 0xbe, 0xb9, 0x94, 0xe8, 0x3d, 0x28, 0x16, 0xfa, 0x3c,
  0xfa, 0xf6, 0x39, 0x3e, 0x10, 0x6d, 0x98, 0x3d, 0xd2, 0xd2, 0xc1, 0x3c,
  0x20, 0x04, 0x1a, 0xbe, 0x3d, 0xb6, 0x1b, 0x3e, 0xcc, 0xd8, 0x68, 0x3d,
  0x33, 0x4c, 0x3c, 0x3d, 0xe3, 0x8a, 0x81, 0x3d, 0x06, 0xe6, 0x82, 0x3d,
  0xfe, 0xa1, 0x9c, 0x3e, 0x20, 0xb7, 0xe2, 0xbe, 0xfb, 0x31, 0xc9, 0x3f,
  0x95, 0x97, 0x4a, 0x3e, 0x33, 0x96, 0x0b, 0x3f, 0x1b, 0x94, 0x31, 0x3f,
  0xad, 0x01, 0x2d, 0x3e, 0xa4, 0xb6, 0x44, 0x3e, 0xe9, 0x48, 0x01, 0x3f,
  0xe1, 0xa5, 0xd0, 0xbe, 0x81, 0x70, 0xf4, 0xbf, 0x29, 0xd9, 0x5a, 0x3f,
  0x63, 0x52, 0x96, 0xbe, 0x6d, 0x41, 0x89, 0x3f, 0x7e, 0x14, 0xac, 0xbf,
  0x15, 0x20, 0x78, 0x3e, 0x22, 0x21, 0xd3, 0x3e, 0x89, 0x3b, 0x5e, 0x3f,
  0x75, 0x3a, 0xb7, 0xbe, 0x00, 0xad, 0x69, 0x3f, 0x5b, 0xca, 0xa7, 0xbf,
  0x3d, 0x9a, 0xe6, 0x3e, 0x74, 0xf1, 0xf9, 0x3e, 0xac, 0x8c, 0xf6, 0x3e,
  0x07, 0xe1, 0xa9, 0x3e, 0xb8, 0xd4, 0x39, 0x3e, 0x62, 0x9d, 0x2c, 0x3f,
  0x09, 0xd1, 0xe9, 0x3e, 0xe5, 0x96, 0xbc, 0x3d, 0x1e, 0x3a, 0x28, 0x3f,
  0x28, 0xd8, 0x19, 0x3f, 0xee, 0x1c, 0x27, 0x3f, 0x86, 0x26, 0x1d, 0x3f,
  0xbb, 0x22, 0x48, 0x3e, 0xe9, 0x31, 0xa2, 0xbd, 0x36, 0x2c, 0x81, 0x3c,
  0x3d, 0xed, 0xb9, 0xbe, 0x60, 0x53, 0xd4, 0x3f, 0x09, 0x90, 0x02, 0xc0,
  0x6c, 0x75, 0x5a, 0xbe, 0x01, 0x0b, 0x45, 0x3e, 0xf7, 0xe5, 0xa8, 0xbc,
  0x1a, 0xdd, 0xbd, 0xbd, 0x44, 0xf2, 0x31, 0xbe, 0x01, 0x5d, 0xe9, 0x3d,
  0x57, 0x72, 0x4e, 0xbe, 0xdd, 0x3a, 0x8d, 0x3d, 0x7b, 0x7d, 0xc8, 0x3d,
  0xfa, 0x5c, 0xe4, 0x3c, 0x61, 0x28, 0x5d, 0x3e, 0x92, 0x2f, 0x15, 0xbd,
  0xb7, 0xed, 0x8c, 0xbd, 0xa8, 0xb8, 0x43, 0x3d, 0xf8, 0x0a, 0xd6, 0xbd,
  0x78, 0xfd, 0xd4, 0x3d, 0xe8, 0x19, 0x18, 0x3e, 0x22, 0x45, 0x0e, 0x3e,
  0x3b, 0xe5, 0xb0, 0x3c, 0xb0, 0x83, 0xab, 0x3d, 0xdb, 0xee, 0x22, 0x3d,
  0x3f, 0x8a, 0x22, 0x3e, 0x28, 0x21, 0x18, 0xbd, 0x1c, 0x3e, 0xd5, 0xbd,
  0x67, 0x76, 0x78, 0x3e, 0x38, 0x7f, 0x69, 0xbe, 0x5f, 0x6e, 0x71, 0xbe,
  0x42, 0x20, 0x86, 0x3d, 0x99, 0xf1, 0xba, 0x3d, 0x71, 0xcf, 0x5d, 0x3d,
  0x16, 0x3e, 0x63, 0x3e, 0x95, 0x5b, 0xa3, 0xbd, 0x11, 0xa0, 0xee, 0xbd,
  0xf3, 0xe7, 0x30, 0xbe, 0x76, 0x90, 0xa5, 0xbd, 0x01, 0x2e, 0xbf, 0xbd,
  0x86, 0x1c, 0xaa, 0x3e, 0x99, 0x1c, 0xda, 0x3e, 0xc4, 0x03, 0x7f, 0x3e,
  0x71, 0xee, 0xfb, 0x3e, 0x06, 0x54, 0xeb, 0x3e, 0x08, 0x9b, 0xf7, 0x3d,
  0xa2, 0xe9, 0x80, 0xbf, 0xa6, 0x10, 0xfe, 0xbf, 0xb4, 0x1c, 0x0e, 0xbe,
  0x82, 0x25, 0x1f, 0xbf, 0xba, 0xdc, 0x3e, 0xbc, 0xfa, 0x65, 0xa5, 0xbf,
  0xc4, 0x4b, 0x26, 0xbe, 0x6c, 0x71, 0xad, 0xbc, 0x27, 0x53, 0xe9, 0xbc,
  0x03, 0xb0, 0x2d, 0xbf, 0x24, 0xfa, 0xf4, 0x3b, 0x82, 0x91, 0x85, 0xbf,
  0x25, 0x9e, 0xbf, 0x3e, 0x91, 0x3b, 0x46, 0x3e, 0x30, 0xc7, 0xc0, 0x3e,
  0x32, 0x1b, 0xd5, 0x3e, 0xe4, 0x84, 0xe8, 0x3e, 0xab, 0xed, 0xfa, 0x3d,
  0x4f, 0x0c, 0x80, 0x3e, 0x5b, 0x5c, 0x85, 0xbd, 0x35, 0xa9, 0xb5, 0x3e,
  0xc4, 0x7d, 0x53, 0x3d, 0x52, 0xad, 0x9a, 0x3e, 0x93, 0x4a, 0xbb, 0x3e,
  0x6f, 0x76, 0x0f, 0xbe, 0x86, 0x39, 0xd5, 0x3c, 0x65, 0xe1, 0x58, 0xbd,
  0x15, 0x90, 0xae, 0xbe, 0xed, 0xb2, 0x6d, 0x3f, 0xb0, 0x70, 0xbb, 0xbf,
  0x85, 0xcd, 0xb3, 0x3c, 0x08, 0x5c, 0x1d, 0xbe, 0xe1, 0x75, 0xc5, 0xbd,
  0x1c, 0xce, 0x0f, 0xbe, 0x06, 0xd1, 0x02, 0x3e, 0xc0, 0xab, 0x25, 0xbe,
  0xa5, 0x50, 0x4e, 0x3f, 0x8b, 0x9d, 0x10, 0x40, 0xc9, 0x33, 0x37, 0xbf,
  0x2a, 0xb5, 0xb5, 0x3e, 0x72, 0xdf, 0x00, 0xbf, 0x4d, 0x9f, 0xca, 0x3f,
  0x97, 0xc7, 0xc6, 0xbe, 0x0b, 0x00, 0xad, 0x3e, 0x8a, 0x9c, 0xa2, 0xbe,
  0x19, 0xd3, 0x5e, 0x3f, 0xb4, 0x44, 0xa4, 0xbe, 0x61, 0x7e, 0xc2, 0x3f,
  0x25, 0xa0, 0x44, 0x3d, 0x89, 0xee, 0xc9, 0x3c, 0x67, 0x1a, 0xa0, 0x3e,
  0x05, 0x92, 0x5b, 0xbe, 0x51, 0x51, 0x85, 0x3e, 0x43, 0x3b, 0x4f, 0xbe,
  0x87, 0x33, 0x8d, 0x3e, 0x73, 0x9a, 0xf4, 0x3d, 0x8e, 0xb1, 0x0b, 0xbe,
  0xfa, 0xba, 0x12, 0xbe, 0xce, 0xb3, 0x8c, 0xbd, 0x67, 0xbd, 0x8f, 0x3e,
  0x02, 0xe0, 0x71, 0x3e, 0xb1, 0xb2, 0x00, 0x3e, 0x6a, 0x3d, 0xee, 0x3d,
  0x91, 0xfd, 0x5b, 0x3f, 0x52, 0xd2, 0x57, 0xbf, 0xae, 0xf6, 0x2c, 0x40,
  0xdc, 0xcd, 0xe7, 0x3d, 0x80, 0x10, 0xfb, 0x3d, 0x80, 0xed, 0x01, 0xbe,
  0x3e, 0xb5, 0x85, 0xbe, 0x9c, 0x54, 0xcb, 0x3d, 0x16, 0xa3, 0x84, 0xbe,
  0xc6, 0xa3, 0x18, 0xbe, 0xc0, 0xce, 0xfe, 0xbd, 0x0d, 0xb5, 0x86, 0x3e,
  0x4e, 0x9b, 0x44, 0x3e, 0x58, 0x35, 0xfe, 0x3d, 0xdc, 0x7b, 0x12, 0x3e,
  0xb6, 0x7d, 0x81, 0xbe, 0x6a, 0x8c, 0x00, 0xbe, 0xb4, 0x0c, 0xc9, 0x3d,
  0xea, 0x3c, 0xba, 0xbd, 0x3c, 0x86, 0x4b, 0x3e, 0x1a, 0xe8, 0x15, 0x3e,
  0x59, 0x55, 0x0d, 0xbe, 0x28, 0x10, 0x22, 0xbe, 0x7c, 0x32, 0x33, 0xbe,
  0x28, 0x5f, 0x3a, 0xbd, 0x84, 0xf3, 0x5c, 0xbd, 0xbc, 0x65, 0x59, 0x3e,
  0x3c, 0x31, 0x11, 0x3e, 0x8a, 0xc1, 0x4f, 0x3e, 0x28, 0x25, 0x79, 0xbe,
  0xde, 0x8b, 0xe8, 0xbd, 0x40, 0xc5, 0xda, 0xbc, 0xc6, 0x8b, 0x36, 0x3e,
  0xde, 0x59, 0x05, 0xbe, 0xbc, 0x44, 0xb2, 0x3d, 0xd4, 0x7a, 0x98, 0x3d,
  0xd8, 0x13, 0x3e, 0x3e, 0x62, 0x20, 0xf9, 0xbd, 0xfc, 0xbf, 0x23, 0x3e,
  0x81, 0x40, 0x34, 0x3e, 0xc8, 0x6c, 0x76, 0x3d, 0x5c, 0xc8, 0x08, 0x3e,
  0xf9, 0xa9, 0x94, 0x3e, 0xec, 0x09, 0xc9, 0xbd, 0x9e, 0x69, 0x3e, 0x3e,
  0x34, 0x6d, 0xec, 0xbf, 0x7b, 0x4e, 0x11, 0xc0, 0x0c, 0x14, 0x09, 0xc0,
  0x38, 0x23, 0x96, 0xbf, 0x2b, 0x1d, 0xca, 0xbf, 0x6a, 0xdc, 0x04, 0xc0,
  0x1c, 0xa6, 0x71, 0xbf, 0xd0, 0xac, 0x5c, 0xbf, 0xc6, 0x0c, 0xdd, 0xbe,
  0x07, 0xaf, 0x8e, 0xbf, 0x29, 0x2e, 0xe4, 0xbf, 0x38, 0xe4, 0xe6, 0xbf,
  0xfe, 0xea, 0xa1, 0xbd, 0x28, 0x42, 0x83, 0x3e, 0xb5, 0xdb, 0xab, 0x3e,
  0xa7, 0xd7, 0xc3, 0xbb, 0xf2, 0x89, 0x1d, 0x3e, 0x21, 0x92, 0x61, 0x3e,
  0x67, 0xa3, 0xa6, 0xbd, 0x72, 0xcb, 0xca, 0x3b, 0xd3, 0xb2, 0xa7, 0xbe,
  0xda, 0xed, 0x69, 0xbd, 0xf3, 0x8c, 0x56, 0x3e, 0xb6, 0x36, 0x9c, 0x3b,
  0x26, 0x43, 0x85, 0xbe, 0xfd, 0x63, 0x77, 0x3e, 0x06, 0xb5, 0x85, 0x3d,
  0xfc, 0x52, 0xf3, 0xbe, 0x86, 0x09, 0xb6, 0xbf, 0xdc, 0x81, 0x17, 0xc0,
  0xfb, 0x8c, 0x58, 0xbc, 0x1e, 0x29, 0xcf, 0x3d, 0x59, 0x92, 0x22, 0xbd,
  0x3e, 0xaf, 0xb5, 0x3d, 0x41, 0xbb, 0xb8, 0x3d, 0x97, 0xd3, 0x8d, 0x3d,
  0x0f, 0x96, 0x47, 0x3e, 0x4f, 0x55, 0x26, 0xbf, 0x12, 0x73, 0x17, 0x40,
  0xb2, 0xb0, 0x1e, 0x3e, 0x9a, 0x56, 0x14, 0x40, 0x52, 0x12, 0x5f, 0xbf,
  0x57, 0xe4, 0x2d, 0x3f, 0x25, 0x9f, 0x03, 0x3f, 0x69, 0x51, 0x53, 0x3f,
  0x92, 0x35, 0xa8, 0xbd, 0xab, 0x42, 0xfa, 0x3f, 0x09, 0xa8, 0x0e, 0xbf,
  0x02, 0x34, 0x3b, 0xbe, 0x3d, 0xac, 0x88, 0x3e, 0x75, 0xf0, 0x89, 0xbe,
  0xdb, 0xdc, 0x26, 0xbe, 0x5b, 0x2e, 0x81, 0x3a, 0x12, 0x47, 0x2a, 0xbe,
  0x6f, 0xd4, 0x9a, 0x3d, 0x41, 0x42, 0xee, 0xbd, 0xb4, 0x95, 0xc4, 0x3e,
  0x27, 0x20, 0xd2, 0x3d, 0x83, 0x6f, 0x11, 0x3e, 0x76, 0x83, 0xa5, 0x3d,
  0xa2, 0x87, 0x8d, 0xbd, 0x37, 0xdb, 0x41, 0x3e, 0x63, 0x86, 0x12, 0x3e,
  0x23, 0xba, 0x0e, 0xbe, 0x20, 0x99, 0x1d, 0x40, 0xed, 0x70, 0xa9, 0xbf,
  0x9c, 0x4f, 0xd2, 0x3d, 0x12, 0x96, 0x2c, 0x3e, 0xea, 0x83, 0x49, 0x3e,
  0xc3, 0x0d, 0x61, 0xbe, 0x86, 0x52, 0x57, 0xbe, 0x0e, 0xbb, 0x8e, 0xbd,
  0xc8, 0xa3, 0x5b, 0xbe, 0x86, 0xb7, 0x7c, 0x3e, 0x76, 0x56, 0x91, 0xbd,
  0x24, 0xed, 0x84, 0xbd, 0x62, 0xe3, 0xf9, 0xbd, 0xd0, 0x0e, 0xc9, 0x3d,
  0x27, 0x54, 0x80, 0x3e, 0xa2, 0xbd, 0x5f, 0xbe, 0x5f, 0x29, 0x3d, 0xbe,
  0x20, 0x80, 0xd8, 0x3d, 0x90, 0xe3, 0x2c, 0x3d, 0x60, 0xaa, 0x71, 0xbe,
  0x42, 0x9c, 0xcb, 0xbd, 0x80, 0xd9, 0x16, 0xbb, 0xe6, 0xef, 0x70, 0x3e,
  0x5a, 0xfa, 0x9b, 0xbd, 0x80, 0x8f, 0x7c, 0xbd, 0x44, 0xc8, 0x72, 0xbe,
  0x80, 0xd5, 0x8f, 0x3c, 0x74, 0x00, 0x3c, 0xbe, 0xd0, 0x9a, 0x1d, 0xbe,
  0x9c, 0x93, 0xd8, 0x3d, 0x00, 0x97, 0x2b, 0x3b, 0x40, 0x3e, 0x59, 0xbc,
  0x40, 0x3d, 0xc1, 0xbb, 0x5a, 0x5d, 0xf0, 0xbd, 0x4c, 0x61, 0x3a, 0xbe,
  0xb2, 0x3c, 0x98, 0xbd, 0x12, 0x3f, 0x19, 0x3e, 0x91, 0xef, 0x81, 0x3e,
  0xea, 0xb0, 0x9d, 0x3c, 0xf9, 0x6d, 0x1b, 0x3e, 0x23, 0xaf, 0xf9, 0xbd,
  0x2a, 0x73, 0x50, 0x3e, 0xcf, 0x14, 0x1e, 0x3e, 0x1b, 0x06, 0x44, 0x3e,
  0xf9, 0xf9, 0x5f, 0x3f, 0xa1, 0xe8, 0xd8, 0x3f, 0x7a, 0x9f, 0x0f, 0xbf,
  0x13, 0x2b, 0x23, 0x3f, 0xc2, 0xc1, 0x49, 0xbf, 0x40, 0x88, 0xf1, 0x3f,
  0xa3, 0x54, 0xb9, 0xbd, 0xd6, 0xc3, 0xa9, 0x3e, 0x6b, 0xb9, 0xf4, 0xbe,
  0x3d, 0x3a, 0xdf, 0x3e, 0x3f, 0xc4, 0x0a, 0xbf, 0x91, 0xea, 0xb7, 0x3f,
  0xba, 0xd3, 0xe9, 0x3d, 0x90, 0xa1, 0xaa, 0xbe, 0x59, 0x79, 0x8d, 0xbc,
  0xa0, 0x9c, 0x7a, 0xbe, 0x87, 0x50, 0xe6, 0xba, 0xa1, 0x8e, 0x85, 0xbe,
  0xbb, 0x6a, 0x62, 0x3e, 0x9b, 0x04, 0xfd, 0xbd, 0x85, 0x54, 0x85, 0xbc,
  0xd3, 0x2a, 0x82, 0x3d, 0x14, 0xf5, 0xc1, 0x3b, 0xb1, 0xa7, 0x45, 0x3e,
  0xcc, 0x50, 0x62, 0xbe, 0x82, 0xc9, 0x5d, 0xbe, 0xc5, 0xd8, 0x1e, 0x3e,
  0xf5, 0x99, 0xb9, 0x3e, 0x47, 0x15, 0x98, 0xbf, 0x57, 0x9b, 0x1f, 0x40,
  0xe5, 0x5c, 0x0d, 0xbe, 0x94, 0x75, 0x9f, 0x3d, 0xbc, 0x6d, 0x26, 0xbe,
  0x5a, 0x53, 0xb7, 0xbd, 0x4e, 0x1e, 0x23, 0x3e, 0xa6, 0x72, 0xec, 0x3d,
  0xcc, 0x6c, 0x82, 0x3f, 0x70, 0xf3, 0xc3, 0x3f, 0xf7, 0x1a, 0x6a, 0xbf,
  0x96, 0xcb, 0x7b, 0x3e, 0xc8, 0xc9, 0x31, 0xbf, 0x74, 0x3d, 0xbc, 0x3f,
  0x63, 0x2c, 0xad, 0x3a, 0x9a, 0xba, 0x34, 0xbe, 0xcb, 0x40, 0xc8, 0xbe,
  0xd6, 0x76, 0x35, 0x3f, 0x0d, 0x14, 0x36, 0xbf, 0x51, 0x0c, 0xde, 0x3f,
  0xca, 0x66, 0x75, 0x3e, 0x72, 0x0d, 0x47, 0xbe, 0xf9, 0x1c, 0x5f, 0x3e,
  0x53, 0x8b, 0x28, 0x3e, 0x15, 0x07, 0x58, 0x3e, 0x1b, 0xbf, 0xbd, 0x3d,
  0xc0, 0x1d, 0xc0, 0xbd, 0xc0, 0x93, 0x90, 0x3e, 0xba, 0xd1, 0x79, 0xbe,
  0x16, 0x58, 0x13, 0xbe, 0x04, 0x67, 0x12, 0xbe, 0x8a, 0x41, 0xa6, 0xbc,
  0xda, 0x4f, 0xef, 0xbd, 0xd1, 0xbb, 0x7f, 0x3e, 0x5b, 0x54, 0xca, 0x3d,
  0x5f, 0xa6, 0x1c, 0x3f, 0x24, 0x43, 0xda, 0xbf, 0x52, 0x88, 0x1d, 0x40,
  0x72, 0xf1, 0xff, 0xff, 0x04, 0x00, 0x00, 0x00, 0xc8, 0x00, 0x00, 0x00,
  0xef, 0xac, 0xe1, 0x3d, 0x7f, 0x65, 0x3a, 0x3d, 0x00, 0x00, 0x00, 0x00,
  0x6e, 0x67, 0xdf, 0x3e, 0x00, 0x00, 0x00, 0x00, 0x00, 0x00, 0x00, 0x00,
  0xc6, 0x17, 0x8f, 0xbc, 0x8a, 0x3a, 0x33, 0x3d, 0x00, 0x00, 0x00, 0x00,
  0x42, 0x9d, 0x16, 0x3f, 0xd0, 0x5b, 0x79, 0x3e, 0x00, 0x00, 0x00, 0x00,
  0x5f, 0xcf, 0x8c, 0xbc, 0x00, 0x00, 0x00, 0x00, 0x00, 0x00, 0x00, 0x00,
  0xdd, 0x4b, 0x92, 0x3e, 0x80, 0x4e, 0x8e, 0x3e, 0x9e, 0x93, 0x82, 0x3e,
  0xc9, 0xa6, 0xe9, 0x3e, 0x66, 0xca, 0x06, 0x3d, 0x00, 0x00, 0x00, 0x00,
  0x72, 0x40, 0xaa, 0xbc, 0x00, 0x00, 0x00, 0x00, 0x00, 0x00, 0x00, 0x00,
  0x00, 0x00, 0x00, 0x00, 0xa9, 0xcd, 0x36, 0xbd, 0x37, 0x52, 0x24, 0xbd,
  0x2a, 0xa9, 0xba, 0x3e, 0xad, 0x5a, 0x80, 0x3e, 0x00, 0x00, 0x00, 0x00,
  0x17, 0xb1, 0x9f, 0x3e, 0x3b, 0xd9, 0x34, 0x3e, 0x00, 0x00, 0x00, 0x00,
  0x00, 0x00, 0x00, 0x00, 0x00, 0x00, 0x00, 0x00, 0x00, 0x00, 0x00, 0x00,
  0x0e, 0xc7, 0x24, 0x3e, 0x00, 0x00, 0x00, 0x00, 0x00, 0x00, 0x00, 0x00,
  0x9c, 0x6d, 0xfd, 0xbc, 0xe1, 0x95, 0xcd, 0x3e, 0x52, 0xc8, 0x10, 0xbb,
  0xd9, 0xd6, 0xb3, 0x3e, 0xdc, 0x8a, 0x02, 0x3d, 0x00, 0x00, 0x00, 0x00,
  0x94, 0x48, 0x2e, 0x3e, 0x56, 0xab, 0xd4, 0xbd, 0x00, 0x00, 0x00, 0x00,
  0xdb, 0x12, 0xcc, 0x3c, 0x3d, 0x26, 0x3b, 0x3d, 0x46, 0xf2, 0xff, 0xff,
  0x04, 0x00, 0x00, 0x00, 0x3c, 0x00, 0x00, 0x00, 0x09, 0xf3, 0xff, 0xbd,
  0xc9, 0x1b, 0xa6, 0xbc, 0x1f, 0xa8, 0x85, 0x3e, 0x77, 0x0f, 0xdd, 0x3e,
  0x36, 0x24, 0x77, 0x3e, 0x38, 0xc4, 0xef, 0x3d, 0x28, 0x67, 0xe5, 0x3d,
  0x9d, 0x73, 0x0f, 0xbd, 0xb6, 0xbb, 0xa7, 0x3d, 0x6a, 0xb0, 0x11, 0x3e,
  0x69, 0x57, 0x9d, 0x3d, 0x1c, 0xa4, 0x92, 0xbc, 0x50, 0xc4, 0x85, 0x3d,
  0x7f, 0x08, 0xee, 0x3c, 0xff, 0xf2, 0x4e, 0xbb, 0x8e, 0xf2, 0xff, 0xff,
  0x04, 0x00, 0x00, 0x00, 0x10, 0x00, 0x00, 0x00, 0xfd, 0xbe, 0x0f, 0x3c,
  0xb8, 0x6e, 0xb1, 0xbe, 0x2a, 0xd0, 0x81, 0xbe, 0xb6, 0x1f, 0x0e, 0xbf,
  0xaa, 0xf2, 0xff, 0xff, 0x04, 0x00, 0x00, 0x00, 0xb8, 0x0b, 0x00, 0x00,
  0x81, 0x9f, 0x49, 0xbe, 0xe3, 0xb7, 0x38, 0xbe, 0x20, 0xa4, 0xdd, 0x3d,
  0xf8, 0x04, 0x8f, 0x3d, 0xf8, 0x23, 0x49, 0x3e, 0x7e, 0xe4, 0xb1, 0xbd,
  0xfc, 0x8d, 0x28, 0xbd, 0x75, 0x66, 0x3f, 0xbe, 0x4e, 0x12, 0x77, 0xbe,
  0xcd, 0xf8, 0x17, 0x3e, 0xd9, 0x3a, 0x35, 0xbe, 0x46, 0xed, 0xdd, 0xbd,
  0x1d, 0xd1, 0x20, 0xbe, 0xa4, 0x4c, 0x6e, 0x3e, 0x22, 0x7b, 0x34, 0x3e,
  0xc3, 0x85, 0x14, 0x3e, 0x4d, 0xef, 0x6e, 0x3e, 0x7f, 0xa0, 0x20, 0x3d,
  0x4b, 0x6a, 0x83, 0x3d, 0xa6, 0xf2, 0x1f, 0x3e, 0x00, 0xa0, 0x6c, 0xb8,
  0xcf, 0xb7, 0x8a, 0x3e, 0x0a, 0x8d, 0x90, 0xbd, 0xeb, 0xaf, 0x88, 0xbe,
  0x00, 0xf5, 0x5d, 0xbc, 0x78, 0x95, 0x3a, 0xbe, 0x17, 0xe0, 0x20, 0xbe,
  0x9f, 0xed, 0x7e, 0x3d, 0xde, 0xe6, 0x46, 0xbd, 0x08, 0xb2, 0x83, 0x3e,
  0x55, 0xdf, 0x43, 0xbc, 0x83, 0xc8, 0x8b, 0x3d, 0xb4, 0xea, 0x20, 0xbe,
  0xdc, 0xc7, 0x42, 0x3e, 0x26, 0x8a, 0x2f, 0xbe, 0x12, 0xcc, 0x6d, 0xbe,
  0xbd, 0x4a, 0x33, 0xbc, 0x00, 0xa2, 0x8b, 0x3a, 0x7c, 0x06, 0x8b, 0x3d,
  0x4a, 0x1d, 0x3c, 0xbe, 0xc7, 0xbc, 0xc7, 0xbe, 0x34, 0x09, 0x69, 0x3e,
  0x7c, 0x51, 0x56, 0x3d, 0x5d, 0x56, 0x00, 0xbd, 0x90, 0xd4, 0x67, 0x3d,
  0xba, 0xa1, 0x5f, 0x3d, 0x23, 0x27, 0xc2, 0xbd, 0xb0, 0xd7, 0xf4, 0xbd,
  0x29, 0x6a, 0x97, 0xbe, 0x75, 0x41, 0x5c, 0x3e, 0x52, 0x21, 0x6e, 0xbe,
  0x87, 0xd3, 0x96, 0x3d, 0x86, 0x61, 0x96, 0x3e, 0x03, 0x34, 0xd9, 0x3c,
  0x40, 0xfc, 0xfe, 0xbc, 0xc0, 0x9a, 0x0f, 0xbd, 0x3f, 0xce, 0xf9, 0xbb,
  0x70, 0x32, 0x94, 0xbd, 0x09, 0xd3, 0x26, 0xbe, 0x3a, 0xb0, 0x85, 0x3e,
  0x45, 0x35, 0x92, 0x3d, 0x40, 0x8c, 0x1a, 0xbc, 0x14, 0x32, 0xbf, 0xbf,
  0xa8, 0xec, 0x4d, 0xbd, 0xd3, 0xd8, 0x3e, 0xbe, 0x63, 0x27, 0x34, 0xbe,
  0xc4, 0x30, 0xd3, 0xbd, 0x2d, 0xce, 0x0a, 0xbf, 0x10, 0x14, 0x12, 0x3f,
  0x3a, 0x39, 0x89, 0xbf, 0x20, 0x4e, 0x6d, 0x3c, 0x89, 0x89, 0x13, 0xbe,
  0x9c, 0x18, 0x22, 0x3e, 0x4a, 0x67, 0x90, 0xbe, 0x96, 0x9d, 0xef, 0xbd,
  0x0c, 0xcc, 0x51, 0xbf, 0x57, 0x26, 0x09, 0xbf, 0x20, 0x51, 0xc4, 0xbe,
  0x22, 0x3e, 0xf5, 0x3c, 0x2a, 0xdf, 0x17, 0x3e, 0x00, 0xa8, 0x6c, 0x3e,
  0x92, 0x59, 0x8e, 0x3f, 0x80, 0xb3, 0x13, 0xbc, 0xbb, 0x99, 0x57, 0xbe,
  0x7c, 0x74, 0x62, 0x3e, 0x10, 0x19, 0xf7, 0xbc, 0x62, 0xaa, 0x76, 0x3f,
  0x56, 0xbb, 0x0e, 0x3e, 0xd8, 0xd9, 0x44, 0x3e, 0xbe, 0x90, 0xa4, 0xbc,
  0x48, 0xcc, 0x14, 0x3f, 0xf4, 0xb5, 0x02, 0x3e, 0x03, 0x06, 0x9d, 0x3c,
  0x5a, 0xe6, 0xa2, 0xbf, 0xc0, 0x0f, 0xae, 0xbb, 0x20, 0x3b, 0xa2, 0x3f,
  0x9d, 0xa1, 0xd8, 0x3c, 0x40, 0xda, 0xf8, 0xbc, 0x9f, 0xb7, 0x6c, 0xbf,
  0x76, 0xb1, 0x2f, 0xbf, 0x4e, 0x0c, 0x71, 0x3f, 0xcc, 0x71, 0x4f, 0x3f,
  0x80, 0x31, 0xea, 0x3d, 0xc5, 0x9e, 0x17, 0xbc, 0x10, 0x6a, 0x90, 0x3d,
  0x98, 0x57, 0x8f, 0x3e, 0x32, 0xbe, 0x1b, 0xbd, 0xf2, 0x83, 0xd3, 0x3e,
  0x10, 0x61, 0x45, 0xbd, 0x0d, 0xa7, 0x36, 0xbe, 0x39, 0x2b, 0x96, 0xbd,
  0x40, 0x30, 0x56, 0xbc, 0x54, 0x20, 0xaa, 0x3f, 0xac, 0x1b, 0xb6, 0x3d,
  0x80, 0xd1, 0x93, 0xbe, 0x2b, 0x20, 0x48, 0x3f, 0x31, 0x54, 0x19, 0xbe,
  0xce, 0x4a, 0x64, 0x3f, 0x8e, 0x11, 0x40, 0xbe, 0x72, 0x00, 0x98, 0x3f,
  0x58, 0x7b, 0x1a, 0x3e, 0x6b, 0x61, 0xc8, 0xbc, 0x2b, 0x03, 0x57, 0xbe,
  0xd6, 0x1c, 0x1c, 0x3e, 0xbe, 0xda, 0x48, 0x3e, 0x7c, 0x4a, 0x55, 0x3f,
  0x29, 0xc3, 0x73, 0x3f, 0xf2, 0x67, 0xdb, 0xbd, 0x37, 0xee, 0xe7, 0xbd,
  0x36, 0x6d, 0x51, 0xbe, 0xff, 0x2a, 0x54, 0xbd, 0x98, 0x70, 0x71, 0xbf,
  0xb9, 0xe4, 0x83, 0xbe, 0x80, 0xc8, 0x9c, 0x3c, 0x3d, 0x29, 0x30, 0xbe,
  0xa6, 0x7d, 0x11, 0xbe, 0x65, 0x96, 0x2b, 0xbf, 0xfe, 0x33, 0x05, 0x3e,
  0x82, 0x5b, 0x96, 0x3e, 0xc4, 0xbc, 0x16, 0x3f, 0x4c, 0x36, 0xb5, 0x3e,
  0xb9, 0x3d, 0x78, 0x3e, 0xf6, 0x99, 0xf4, 0xbd, 0xa0, 0xc9, 0x86, 0x3f,
  0xde, 0x56, 0x3e, 0xbe, 0xe4, 0xd1, 0x70, 0xbf, 0x34, 0x95, 0x6d, 0x3f,
  0xa0, 0x84, 0x83, 0xbc, 0x92, 0x36, 0x8d, 0x3f, 0xfa, 0xba, 0x19, 0x3f,
  0x65, 0xbb, 0x3f, 0x3f, 0xc6, 0x3f, 0x26, 0x3f, 0x80, 0x43, 0x35, 0xbb,
  0x73, 0x2f, 0xcc, 0x3d, 0xb6, 0x0e, 0x07, 0x3e, 0x5c, 0x75, 0x3e, 0xbe,
  0xe8, 0x1a, 0x5d, 0xbd, 0x0f, 0x52, 0x38, 0x3f, 0xe9, 0x60, 0x32, 0xbe,
  0x21, 0x6b, 0xc8, 0x3d, 0xa3, 0xac, 0x4e, 0x39, 0x4c, 0xa1, 0x40, 0xbe,
  0x65, 0x53, 0x33, 0x3f, 0x2a, 0x18, 0x02, 0x3e, 0x38, 0x71, 0x43, 0xbd,
  0xae, 0x04, 0x7d, 0x3e, 0x25, 0xdb, 0x5c, 0xbd, 0x25, 0x02, 0x1c, 0x3f,
  0x44, 0xa2, 0x62, 0x3e, 0x03, 0xdd, 0x4d, 0x3f, 0xe8, 0xf8, 0xfc, 0x3d,
  0x8e, 0x45, 0x93, 0xbd, 0x70, 0xeb, 0x0e, 0xbe, 0x40, 0x34, 0xa7, 0xbc,
  0x8e, 0x5a, 0x35, 0x3e, 0xe5, 0x43, 0x27, 0x3f, 0xc6, 0x75, 0x59, 0x3f,
  0x0a, 0xc0, 0x8c, 0x3e, 0x81, 0xc5, 0x24, 0x3c, 0x1c, 0xc4, 0xde, 0xbd,
  0xc5, 0x91, 0x9c, 0x3e, 0x4e, 0x62, 0x91, 0xbe, 0x6a, 0x33, 0x1a, 0xbe,
  0x70, 0x5f, 0x4b, 0x3e, 0x4a, 0x87, 0x3c, 0x3e, 0x72, 0xac, 0x7f, 0xbe,
  0x3e, 0x04, 0xe9, 0xbd, 0xb8, 0x6e, 0x84, 0x3d, 0x94, 0x6d, 0xbe, 0xbd,
  0xa3, 0xa8, 0x2d, 0x3f, 0xd3, 0xba, 0x5f, 0x3e, 0x75, 0xac, 0x22, 0xbe,
  0x61, 0xa1, 0x01, 0x3e, 0x72, 0x8c, 0xe5, 0x3d, 0x45, 0x18, 0x77, 0xbe,
  0xcb, 0x61, 0x2b, 0xbe, 0x50, 0xd0, 0x92, 0x3f, 0x88, 0x89, 0xa1, 0x3d,
  0x0f, 0x17, 0x07, 0xbd, 0x4e, 0x36, 0x7b, 0x3e, 0xb6, 0xae, 0xa1, 0x3e,
  0xf2, 0xe5, 0x6f, 0x3e, 0xc4, 0xc8, 0x6d, 0xbe, 0x43, 0xf8, 0x47, 0x3d,
  0xf8, 0xa2, 0x4b, 0xbd, 0x40, 0xd4, 0x07, 0x3d, 0x26, 0x10, 0xb9, 0xbd,
  0xa1, 0x57, 0xd0, 0x3d, 0x84, 0x49, 0x6e, 0x3e, 0x46, 0x42, 0x0e, 0x3c,
  0x1f, 0x74, 0x24, 0x3f, 0x7a, 0xae, 0x87, 0x3e, 0xa2, 0xa1, 0x17, 0x3f,
  0xd8, 0x5b, 0x3a, 0xbe, 0x40, 0x2d, 0x88, 0xbc, 0x33, 0x6d, 0xdf, 0x3d,
  0x64, 0xec, 0x43, 0x3f, 0x64, 0x84, 0xc6, 0x3e, 0xd2, 0xbb, 0x01, 0xbe,
  0x0f, 0x28, 0x69, 0x3f, 0xe0, 0x0c, 0x34, 0x3d, 0x0e, 0x88, 0x93, 0xbe,
  0xb0, 0x17, 0x7c, 0x3d, 0xd0, 0x1f, 0x8b, 0x3d, 0xe9, 0xea, 0x72, 0xbe,
  0x97, 0xb2, 0x16, 0x3f, 0xd3, 0x17, 0x21, 0x3e, 0xed, 0x36, 0x7c, 0x3f,
  0xaa, 0x21, 0x56, 0x3f, 0xd8, 0xf0, 0x7b, 0x3e, 0x8a, 0xf7, 0x5c, 0x3e,
  0x05, 0x21, 0x5f, 0x3f, 0xcc, 0xc1, 0xb8, 0x3d, 0x80, 0x30, 0xa5, 0xbc,
  0x80, 0xc4, 0x61, 0xbb, 0x88, 0x45, 0x76, 0xbe, 0x68, 0x10, 0x54, 0x3e,
  0x00, 0x73, 0x26, 0x3c, 0xe0, 0x7a, 0x29, 0x3e, 0x25, 0x58, 0x61, 0x3d,
  0xe4, 0xc2, 0x85, 0xbe, 0x6b, 0x53, 0x77, 0xbe, 0x04, 0xb6, 0x18, 0x3e,
  0x1b, 0x0a, 0xea, 0x3f, 0x48, 0xf0, 0xb3, 0x3d, 0x2c, 0x39, 0x4c, 0x3f,
  0x38, 0x94, 0x29, 0xbf, 0x12, 0x8d, 0x01, 0x3e, 0xff, 0x56, 0xdd, 0x3f,
  0xcf, 0xe4, 0xa2, 0x3f, 0x14, 0x86, 0x19, 0x3f, 0x44, 0x15, 0xb3, 0xbc,
  0xe2, 0xb2, 0x8f, 0x3e, 0xce, 0xc1, 0x5d, 0xbd, 0x54, 0x29, 0x67, 0x3e,
  0x00, 0x28, 0x5f, 0xbb, 0xcb, 0xfc, 0x2b, 0x3b, 0x45, 0xb4, 0xd3, 0x3c,
  0x36, 0x02, 0x80, 0x3e, 0xd8, 0x2a, 0x9f, 0xbe, 0xbe, 0x7f, 0xe3, 0x3e,
  0xe8, 0x27, 0x79, 0x3e, 0x04, 0x74, 0x4f, 0x3f, 0x5c, 0x0d, 0x26, 0x3e,
  0xd0, 0x89, 0x17, 0x3e, 0x7d, 0x5c, 0x25, 0x3e, 0x1c, 0x81, 0x23, 0x3f,
  0xfb, 0x62, 0xed, 0x3e, 0x15, 0x05, 0xc2, 0xbe, 0xa5, 0xbb, 0xcb, 0x3f,
  0x78, 0x3b, 0x8c, 0xbd, 0xdf, 0x9c, 0x76, 0xbe, 0x60, 0x0e, 0xdc, 0x3d,
  0xe8, 0x8d, 0x37, 0xbd, 0x98, 0xc0, 0x78, 0x3d, 0xa3, 0x94, 0x3f, 0x3f,
  0x0c, 0xce, 0x2f, 0x3f, 0xe2, 0x7c, 0x37, 0x3f, 0xc5, 0xcd, 0x03, 0x3f,
  0x6f, 0xf7, 0x85, 0xbe, 0x65, 0xdf, 0x76, 0xbd, 0xdc, 0x03, 0x1e, 0xbf,
  0x05, 0xb8, 0x90, 0xbe, 0x64, 0x8a, 0x8d, 0x3d, 0x82, 0x4e, 0x85, 0xbe,
  0x85, 0x7a, 0x0f, 0xbe, 0x2b, 0xfd, 0x5e, 0xbf, 0x05, 0xc1, 0x91, 0xbe,
  0x00, 0xc0, 0xdc, 0xbb, 0x6c, 0x0f, 0x58, 0x3e, 0x0c, 0x1b, 0x1a, 0xbf,
  0x12, 0x54, 0xc9, 0x3d, 0xb7, 0xab, 0x2f, 0xbe, 0xd0, 0x40, 0xc0, 0x3f,
  0x6d, 0x78, 0x5c, 0xbe, 0xd6, 0x73, 0x2f, 0xbf, 0xdd, 0xfd, 0x2f, 0xbf,
  0x40, 0x36, 0x2b, 0xbc, 0x6c, 0x02, 0xa7, 0x3f, 0x97, 0x0d, 0x8a, 0x3f,
  0xd6, 0x6e, 0xc8, 0x3e, 0xb6, 0x75, 0x39, 0x3f, 0x6e, 0x45, 0x8b, 0x3e,
  0x89, 0x79, 0xaf, 0x3e, 0x18, 0xb3, 0x75, 0xbd, 0x98, 0x60, 0xba, 0xbd,
  0x84, 0x66, 0x27, 0xbb, 0x11, 0xc2, 0x1d, 0x3f, 0x3c, 0x4d, 0x76, 0x3e,
  0x4b, 0x63, 0xf2, 0x3e, 0x4d, 0xf3, 0x50, 0xbe, 0x17, 0xfd, 0x40, 0xbe,
  0xb0, 0xf8, 0x95, 0x3e, 0xcc, 0x8f, 0x04, 0x3e, 0x45, 0xfd, 0x8d, 0xbe,
  0x52, 0xcf, 0x37, 0x3f, 0x67, 0x9f, 0x51, 0xbf, 0x80, 0x99, 0xa0, 0x3e,
  0x94, 0xb8, 0xb7, 0x3e, 0x70, 0x77, 0x82, 0xbe, 0x86, 0xe5, 0xb1, 0xbd,
  0x50, 0x61, 0xc4, 0x3d, 0x06, 0x03, 0xeb, 0xbd, 0xe0, 0x09, 0x63, 0x3d,
  0xda, 0xa6, 0x3a, 0x3e, 0x9d, 0x33, 0xee, 0x3e, 0x30, 0x3f, 0x0b, 0x3f,
  0x1e, 0x5b, 0x8c, 0xbf, 0x84, 0x4d, 0x7a, 0xbe, 0xbb, 0x23, 0x30, 0xbe,
  0x6f, 0x37, 0x8f, 0x3d, 0x41, 0x75, 0x69, 0xbf, 0x54, 0x2b, 0x30, 0xbe,
  0x60, 0x80, 0x28, 0xbc, 0xc6, 0x46, 0xa2, 0xbd, 0x80, 0x87, 0x77, 0xbb,
  0xa9, 0xa8, 0xd7, 0xbe, 0x28, 0x24, 0x91, 0x3e, 0xc5, 0x1e, 0x85, 0xbe,
  0x71, 0x1e, 0x25, 0x3d, 0xd5, 0x4b, 0x15, 0x3f, 0xf2, 0x27, 0xc4, 0xbd,
  0xf4, 0x12, 0x20, 0x3e, 0x51, 0x40, 0x8e, 0xbf, 0x64, 0xa0, 0x60, 0x3e,
  0x29, 0x89, 0xf2, 0xbe, 0xaf, 0x6c, 0x98, 0x3f, 0x6d, 0xa7, 0x0f, 0xbe,
  0x8c, 0x6d, 0x76, 0xbf, 0x69, 0x16, 0x51, 0xbf, 0xc1, 0xb5, 0x78, 0xbe,
  0xea, 0x3e, 0xa6, 0xbe, 0x92, 0xc8, 0x4f, 0xbe, 0x45, 0x74, 0x23, 0x3d,
  0x90, 0x69, 0xac, 0xbc, 0xd4, 0x5f, 0x9a, 0x3e, 0x9b, 0x48, 0x57, 0x3e,
  0x88, 0xd9, 0xd2, 0xbd, 0xb0, 0xff, 0x36, 0xbe, 0x0b, 0x8b, 0xfc, 0x3e,
  0x83, 0x12, 0xa9, 0x3c, 0xd4, 0x3d, 0x6b, 0x3e, 0xbf, 0x62, 0xb2, 0xbf,
  0xdc, 0x0b, 0xd6, 0x3d, 0x80, 0x9c, 0xa1, 0x3c, 0xad, 0x39, 0xb0, 0xbe,
  0x18, 0x25, 0xe7, 0xbe, 0xaf, 0xf4, 0xe4, 0xbe, 0x9b, 0xdb, 0x97, 0x3e,
  0xfe, 0xec, 0x89, 0xbf, 0xc0, 0x9c, 0xf9, 0xbd, 0xcc, 0xf2, 0x70, 0x3e,
  0x38, 0x8a, 0x63, 0xbe, 0x68, 0x53, 0x08, 0x3d, 0x20, 0xe1, 0x4c, 0x3e,
  0x87, 0x20, 0x27, 0xbf, 0xfc, 0xfa, 0x78, 0xbe, 0x8b, 0xfe, 0xcf, 0xbe,
  0x0d, 0x8b, 0x12, 0xbe, 0x34, 0xa4, 0xca, 0xbd, 0xb4, 0x35, 0x69, 0x3e,
  0x27, 0x7e, 0x75, 0x3f, 0x50, 0x0c, 0xd9, 0x3c, 0xbc, 0x25, 0x66, 0xbe,
  0xf6, 0x23, 0x3a, 0x3e, 0x12, 0x0f, 0x99, 0x3e, 0xea, 0xdf, 0x6c, 0x3f,
  0x22, 0xbe, 0xb5, 0xbd, 0x12, 0x20, 0x30, 0x3e, 0x41, 0x26, 0xa5, 0xbc,
  0x9d, 0x87, 0x17, 0x3f, 0x03, 0x61, 0x96, 0xbd, 0x19, 0x73, 0xeb, 0x3e,
  0x6d, 0xaf, 0x7a, 0xbf, 0x70, 0x4e, 0xeb, 0x3c, 0xa4, 0x8b, 0x78, 0x3f,
  0xdb, 0x84, 0x60, 0x3e, 0xb6, 0x6d, 0x8e, 0x3e, 0xa2, 0xf8, 0x9b, 0xbf,
  0x34, 0x01, 0x57, 0xbf, 0x96, 0xdb, 0xc2, 0xbe, 0xf5, 0x8e, 0xea, 0xbe,
  0x12, 0x5c, 0xd7, 0xbd, 0xb0, 0x7d, 0x8e, 0x3e, 0x03, 0x3c, 0x80, 0xbe,
  0xe0, 0x7e, 0x15, 0xbe, 0x26, 0xc6, 0x91, 0xbe, 0xc5, 0x30, 0x2d, 0x3e,
  0x10, 0xc9, 0x53, 0x3d, 0xeb, 0x19, 0x49, 0x3d, 0x8f, 0x32, 0x12, 0x3f,
  0x9c, 0x81, 0xf1, 0xbd, 0x26, 0x35, 0x01, 0xbf, 0x3b, 0xa0, 0x70, 0xbe,
  0xa8, 0xd4, 0x8e, 0x3e, 0x7a, 0xa8, 0xc5, 0x3d, 0xc8, 0x8f, 0x4c, 0x3f,
  0x39, 0xaa, 0x68, 0xbe, 0x07, 0x17, 0xa5, 0x3e, 0x47, 0x71, 0xef, 0x3d,
  0xf0, 0x87, 0xea, 0xbd, 0x24, 0x93, 0xb9, 0x3d, 0xb8, 0x09, 0x5e, 0xbe,
  0xf0, 0xf8, 0xd5, 0x3d, 0xd4, 0xa3, 0x65, 0x3e, 0xbc, 0x33, 0xce, 0xbd,
  0xc3, 0xf8, 0x9a, 0xbe, 0xb4, 0xab, 0xf1, 0x3e, 0xd5, 0x2b, 0x0b, 0x3f,
  0x60, 0xd9, 0x89, 0xbe, 0x82, 0xe5, 0x3c, 0xbe, 0x7b, 0x97, 0x6e, 0x3f,
  0x00, 0x87, 0xca, 0x3d, 0x60, 0x59, 0xaa, 0x3c, 0x88, 0xa7, 0x8e, 0x3e,
  0xe0, 0xb4, 0x58, 0x3e, 0xd3, 0xe7, 0x3a, 0x3f, 0xf8, 0xa4, 0x57, 0xbd,
  0x60, 0xb6, 0x91, 0x3e, 0x78, 0x9b, 0xbb, 0xbe, 0xf2, 0xe9, 0x34, 0x3e,
  0x6a, 0x46, 0x8d, 0x3e, 0xc1, 0x07, 0x23, 0xbc, 0x86, 0xc7, 0xe2, 0x3e,
  0x60, 0xfb, 0xd0, 0x3c, 0x9b, 0x97, 0x26, 0x3f, 0x71, 0xf5, 0x10, 0xbf,
  0x10, 0x30, 0x29, 0xbd, 0x73, 0x8a, 0x1b, 0x3f, 0xfd, 0x77, 0x32, 0x3f,
  0xc7, 0x2b, 0x68, 0xbd, 0x31, 0x9c, 0x6d, 0xbe, 0x32, 0x68, 0x4c, 0xbe,
  0x8b, 0xb6, 0x35, 0xbe, 0xf8, 0xe9, 0x2d, 0xbd, 0x18, 0x19, 0xe7, 0xbd,
  0x60, 0xab, 0x7e, 0x3e, 0xdd, 0x80, 0xe3, 0xb9, 0xc0, 0xab, 0xa9, 0x3c,
  0x8d, 0x7c, 0x22, 0xbd, 0x01, 0x14, 0xa8, 0x3a, 0xa4, 0x44, 0x62, 0x3e,
  0x69, 0xb9, 0x80, 0x3d, 0xc4, 0x46, 0x4d, 0xbe, 0xb4, 0xb8, 0x74, 0xbe,
  0x92, 0x24, 0xa1, 0x3c, 0xd4, 0x79, 0x08, 0x3f, 0x88, 0xcb, 0xbb, 0x3e,
  0x27, 0x7b, 0x64, 0xbd, 0x6a, 0xee, 0x89, 0xbd, 0xda, 0xc6, 0x83, 0xbd,
  0xad, 0xdf, 0x51, 0xbe, 0xb4, 0x64, 0xd9, 0x3d, 0x58, 0xd7, 0xea, 0xbd,
  0x04, 0x78, 0x62, 0x3e, 0xd9, 0x9e, 0x9a, 0x3d, 0x3c, 0x29, 0x76, 0xbe,
  0x30, 0x7e, 0x04, 0x3f, 0x7e, 0xae, 0x14, 0x3f, 0xca, 0xb0, 0x8a, 0x3e,
  0x4e, 0xbb, 0x15, 0xbe, 0x34, 0x72, 0xa2, 0x3e, 0xbc, 0xee, 0x25, 0x3e,
  0xfb, 0x49, 0x50, 0xbe, 0x8d, 0x36, 0x81, 0xbe, 0x68, 0xa7, 0x0b, 0xbd,
  0x8d, 0x5a, 0xe1, 0xbd, 0xb2, 0x0e, 0x22, 0xbe, 0x40, 0xcd, 0x9d, 0xbb,
  0x27, 0x23, 0xe5, 0x3c, 0x20, 0xf7, 0xe9, 0xbe, 0x70, 0x63, 0xdb, 0x3d,
  0x08, 0x8c, 0x19, 0x3e, 0x3b, 0x3a, 0xd1, 0xbd, 0x38, 0xab, 0x19, 0x3d,
  0x65, 0xa6, 0x8e, 0xbe, 0xc7, 0x6f, 0x1a, 0xbf, 0xc3, 0x03, 0x9a, 0xbe,
  0x7e, 0x62, 0x9b, 0x3e, 0xd4, 0x0a, 0xf5, 0x3e, 0xc6, 0x8c, 0xc2, 0x3e,
  0x87, 0xd8, 0x8f, 0xbd, 0x0a, 0x80, 0x80, 0xbd, 0x2e, 0x90, 0x62, 0xbd,
  0x14, 0xa1, 0x15, 0x3e, 0x60, 0x2d, 0x9d, 0x3c, 0xef, 0x69, 0x73, 0xbe,
  0xff, 0x80, 0x12, 0xbe, 0xd8, 0x0d, 0xcd, 0x3d, 0x43, 0x07, 0xaa, 0xbe,
  0xf6, 0xce, 0x0a, 0x3e, 0x70, 0x58, 0x7f, 0xbe, 0x6b, 0xf4, 0x93, 0x3f,
  0x00, 0xc0, 0x1f, 0x3a, 0x5e, 0x67, 0x34, 0x3e, 0xf0, 0x9d, 0xd6, 0x3e,
  0x8a, 0x74, 0x26, 0x3f, 0x9e, 0x30, 0x87, 0x3e, 0xc0, 0x97, 0x0c, 0xbf,
  0x85, 0x29, 0xbb, 0x3f, 0xe2, 0x5f, 0xfa, 0xbd, 0xe6, 0x56, 0x4a, 0x3e,
  0xb6, 0xd9, 0x88, 0x3e, 0x84, 0x07, 0x52, 0xbe, 0x8a, 0x1c, 0x87, 0x3e,
  0x17, 0x33, 0x80, 0x3f, 0xa6, 0xbc, 0xa1, 0x3e, 0xb3, 0x29, 0xd8, 0x3e,
  0xc0, 0x4b, 0xb1, 0x3e, 0xda, 0x0d, 0xd9, 0xbd, 0x67, 0xbf, 0x54, 0x3d,
  0x9c, 0xc5, 0x50, 0xbf, 0xee, 0xe5, 0x82, 0x3e, 0x66, 0x01, 0x92, 0x3e,
  0x9d, 0x82, 0x67, 0xbe, 0x42, 0x35, 0x89, 0xbd, 0x36, 0x02, 0x92, 0xbf,
  0x33, 0xcc, 0x09, 0xbe, 0xc0, 0xb1, 0xc8, 0xbd, 0x99, 0x5f, 0xea, 0x3e,
  0x22, 0xe8, 0xb4, 0xbe, 0xea, 0x6a, 0xd3, 0xbc, 0x14, 0x2c, 0x25, 0x3e,
  0xe6, 0x24, 0xf9, 0x3f, 0xdb, 0x8b, 0x7c, 0xbe, 0x71, 0xdf, 0xa5, 0xbf,
  0x0d, 0xc3, 0x06, 0x3e, 0x2c, 0x44, 0x9f, 0x3d, 0x4c, 0x53, 0xa5, 0x3f,
  0x32, 0x73, 0x82, 0x3f, 0x4d, 0x64, 0x90, 0xbe, 0x51, 0x42, 0x64, 0xbe,
  0x28, 0x4f, 0x3c, 0xbe, 0x3b, 0x1c, 0x31, 0x3d, 0x61, 0x91, 0x11, 0xbe,
  0xae, 0x83, 0x2d, 0xbe, 0x5a, 0x4e, 0x8e, 0xbe, 0xa3, 0xb5, 0xf9, 0xbd,
  0xfc, 0x1f, 0x4d, 0x3e, 0x2b, 0x2c, 0x2c, 0x3e, 0xa9, 0xd1, 0x6b, 0xbd,
  0x14, 0xb6, 0x6d, 0x3e, 0xff, 0x64, 0x8f, 0xbe, 0x10, 0x29, 0xb0, 0x3d,
  0x3a, 0xb7, 0x3d, 0x3e, 0x8e, 0xbd, 0x12, 0x3e, 0x3a, 0x1a, 0x9f, 0x3c,
  0x35, 0x53, 0x6d, 0xbd, 0x3c, 0x47, 0x61, 0xbe, 0x13, 0x3c, 0xb4, 0xbd,
  0x40, 0x3c, 0xa1, 0x3d, 0xd2, 0xa7, 0x74, 0xbe, 0xda, 0x63, 0x62, 0xbe,
  0xd0, 0x04, 0x6f, 0x3e, 0x70, 0x26, 0x4e, 0xbe, 0x97, 0x91, 0xbd, 0xbc,
  0xf2, 0xcc, 0x2a, 0x3d, 0x76, 0x7f, 0x33, 0xbe, 0x2a, 0xff, 0xc4, 0x3d,
  0xc8, 0xbb, 0x27, 0xbe, 0x25, 0xe5, 0xce, 0xbd, 0x8e, 0xae, 0x41, 0x3e,
  0xf8, 0x75, 0x21, 0xbe, 0x28, 0x6d, 0x93, 0x3e, 0x00, 0x08, 0x2a, 0x3e,
  0x32, 0xe6, 0x84, 0xbe, 0xb3, 0x09, 0x28, 0xbe, 0xc1, 0xee, 0x86, 0xbe,
  0x6e, 0xe3, 0x0a, 0x3e, 0xfc, 0xe6, 0xba, 0xbd, 0x99, 0x7d, 0x24, 0x3d,
  0x80, 0xe3, 0x1e, 0xbb, 0x20, 0xdd, 0xcf, 0x3d, 0x68, 0xfd, 0x3b, 0xbe,
  0xea, 0xfb, 0x23, 0x3e, 0x98, 0xb2, 0xbe, 0xbd, 0xf4, 0x13, 0x24, 0x3e,
  0x40, 0x7e, 0x8f, 0xbe, 0x92, 0x5e, 0xd6, 0x3d, 0xe6, 0x45, 0x89, 0xbe,
  0xf5, 0x44, 0x6b, 0x3e, 0xae, 0x38, 0xce, 0xbd, 0x60, 0xca, 0xe8, 0x3d,
  0x03, 0x0c, 0x7c, 0xbe, 0x70, 0x5d, 0x3c, 0xbe, 0x1c, 0x01, 0x99, 0x3e,
  0x28, 0xa9, 0x61, 0x3e, 0xe1, 0x32, 0x34, 0x3e, 0x98, 0xb7, 0x3e, 0xbe,
  0x7c, 0x3d, 0x1a, 0xbe, 0xf3, 0xb7, 0xd7, 0x3d, 0xa0, 0x93, 0x4b, 0x3d,
  0xa4, 0x98, 0x3b, 0x3e, 0x80, 0xad, 0xf4, 0x3d, 0xba, 0xa8, 0x1c, 0x3e,
  0x48, 0x8f, 0x82, 0x3e, 0xcb, 0x2e, 0x25, 0x3f, 0x89, 0xb4, 0xba, 0xbd,
  0xa6, 0x15, 0xa6, 0xbe, 0xda, 0xf2, 0xf7, 0x3e, 0xa0, 0x87, 0xbd, 0x3d,
  0x80, 0x82, 0x0d, 0x3d, 0xca, 0x3b, 0x8a, 0x3e, 0xa4, 0x54, 0x1c, 0xbe,
  0xde, 0x56, 0x5b, 0xbe, 0xf7, 0x8d, 0xa7, 0x3d, 0x67, 0x54, 0x93, 0x3c,
  0xd0, 0xbc, 0x0f, 0x3f, 0xff, 0xef, 0x4f, 0x3d, 0x00, 0xce, 0xf7, 0xbb,
  0x6e, 0x14, 0x91, 0xbe, 0x9c, 0xdf, 0xbd, 0x3e, 0x8d, 0x93, 0x8c, 0xbe,
  0x70, 0xbd, 0x87, 0x3c, 0xa8, 0x96, 0x69, 0x3e, 0x2c, 0xcf, 0x66, 0x3e,
  0xf2, 0x75, 0x30, 0xbe, 0x88, 0x40, 0x64, 0x3d, 0x90, 0x5b, 0xee, 0xbc,
  0x7c, 0xad, 0x9a, 0x3c, 0x9a, 0x7c, 0x69, 0xbd, 0x08, 0x19, 0x69, 0xbd,
  0xb1, 0xe3, 0x96, 0xbc, 0x3a, 0x8e, 0x55, 0x3d, 0xca, 0x80, 0x91, 0x3e,
  0x3a, 0xea, 0xa1, 0xbd, 0x3e, 0x73, 0x08, 0xbf, 0x04, 0xa8, 0x66, 0x3e,
  0xfc, 0xc1, 0x05, 0x3f, 0x0b, 0xb0, 0x47, 0xba, 0x75, 0xe1, 0x3d, 0xbe,
  0xc3, 0x7a, 0xfc, 0x3e, 0x40, 0x2e, 0x24, 0x3e, 0x36, 0x16, 0x6e, 0x3e,
  0xb0, 0x26, 0xa9, 0x3c, 0xe8, 0x08, 0x3a, 0xbd, 0x00, 0xec, 0xdb, 0xbd,
  0xa2, 0xfa, 0xa5, 0x3e, 0x74, 0x19, 0xa6, 0x3d, 0x9c, 0x7f, 0xd5, 0x3e,
  0xd9, 0x0a, 0xff, 0xbe, 0xb0, 0xa6, 0x91, 0xbc, 0x55, 0x71, 0x5e, 0xbf,
  0xab, 0x21, 0x95, 0xbe, 0x70, 0x93, 0x78, 0xbe, 0xcd, 0x2c, 0xd2, 0x3e,
  0x23, 0x9f, 0x5c, 0xbf, 0x19, 0x7f, 0x8c, 0x3e, 0x6a, 0x1f, 0x5d, 0x3e,
  0x8b, 0x81, 0x74, 0xbf, 0x18, 0xec, 0x3d, 0x3e, 0xbe, 0x3a, 0x68, 0xbe,
  0x58, 0xcf, 0x70, 0x3e, 0x80, 0x81, 0x5e, 0xbd, 0xe4, 0x06, 0x6f, 0xbe,
  0xd4, 0x8a, 0x2d, 0xbe, 0x90, 0x3f, 0xb5, 0xbe, 0xed, 0xa1, 0x68, 0xbf,
  0x63, 0x69, 0x14, 0xbf, 0xe8, 0xa7, 0x96, 0x3e, 0x0f, 0xd9, 0xd8, 0x3e,
  0xe0, 0xac, 0x98, 0xbe, 0x2c, 0x47, 0x3b, 0x3e, 0x18, 0xb6, 0x2a, 0x3d,
  0xca, 0x83, 0x53, 0xbe, 0xbc, 0x3a, 0x58, 0xbe, 0x26, 0x1e, 0xef, 0xbe,
  0x2c, 0x8a, 0xd6, 0xbd, 0xe2, 0x60, 0x70, 0xbe, 0xe4, 0x46, 0xc8, 0x3c,
  0x75, 0xaa, 0x84, 0x3e, 0x00, 0x98, 0x6c, 0x3d, 0xe0, 0x34, 0x6e, 0x3e,
  0x98, 0x2d, 0xf8, 0xbf, 0xd0, 0xdc, 0x74, 0xbd, 0xf1, 0x88, 0xe1, 0xbe,
  0x97, 0xcc, 0x73, 0x3f, 0x20, 0xa9, 0x78, 0xbd, 0x73, 0xce, 0xcd, 0xbf,
  0x1a, 0xac, 0x90, 0xbf, 0x8d, 0xc8, 0x8b, 0x3e, 0x5c, 0xb8, 0x96, 0xbe,
  0xa1, 0x48, 0x99, 0xbe, 0x29, 0x10, 0xeb, 0x3d, 0x52, 0x1e, 0x99, 0x3e,
  0x26, 0x45, 0x0b, 0x3e, 0x7c, 0xc0, 0x78, 0x3e, 0xa3, 0xc9, 0xe0, 0xbc,
  0x15, 0x5f, 0x93, 0xbe, 0x91, 0x6d, 0x8f, 0xbe, 0xa0, 0x92, 0xd5, 0x3d,
  0x60, 0x8b, 0x15, 0xbd, 0x10, 0x41, 0x7d, 0x3e, 0x0e, 0xbc, 0x73, 0xbe,
  0x6e, 0x5e, 0x00, 0x3e, 0xd9, 0x1a, 0x6f, 0xbe, 0x51, 0x06, 0x98, 0xbe,
  0x84, 0x76, 0x15, 0x3e, 0x91, 0xb0, 0x86, 0xbe, 0x5c, 0x87, 0x52, 0xbe,
  0x2a, 0x68, 0x60, 0xbe, 0x04, 0x83, 0xfb, 0xbd, 0x10, 0x00, 0xac, 0x3d,
  0xf8, 0x47, 0x90, 0xbe, 0x06, 0x6b, 0x66, 0xbe, 0xef, 0x3c, 0x8e, 0xbe,
  0xe1, 0xf2, 0x95, 0xbe, 0x26, 0xdc, 0x44, 0xbe, 0xc3, 0x4b, 0x32, 0xbd,
  0xc8, 0x72, 0x83, 0xbe, 0x2e, 0xb0, 0x0a, 0x3d, 0x55, 0xa7, 0x24, 0xbe,
  0xc2, 0x58, 0x95, 0x3e, 0xac, 0x5d, 0xb1, 0x3d, 0x2a, 0x3e, 0x46, 0x3e,
  0xe2, 0x2a, 0x39, 0x3e, 0x63, 0x8d, 0x0e, 0xbe, 0x30, 0x9b, 0xa2, 0x3d,
  0xe0, 0x76, 0x51, 0xbe, 0x77, 0x61, 0x8a, 0x3d, 0x58, 0x7c, 0x42, 0xbe,
  0xe4, 0x38, 0x94, 0x3e, 0xa3, 0x6a, 0xb0, 0xbd, 0x1b, 0xfc, 0x75, 0x3e,
  0x7a, 0x58, 0x4c, 0xbe, 0xa0, 0xee, 0x2c, 0x3e, 0x05, 0xb5, 0x63, 0xbe,
  0x74, 0x8c, 0x6a, 0xbd, 0xa8, 0x02, 0x21, 0xbd, 0x20, 0x13, 0x08, 0xbc,
  0x6e, 0xfe, 0xff, 0xff, 0x04, 0x00, 0x00, 0x00, 0xf0, 0x00, 0x00, 0x00,
  0xa9, 0x65, 0x2a, 0xbd, 0xfc, 0xb3, 0x0f, 0x3f, 0x4d, 0xc5, 0xc4, 0xbf,
  0x97, 0x7f, 0x48, 0xbf, 0xb8, 0xe0, 0x31, 0x3f, 0x6d, 0x43, 0x3f, 0xbf,
  0x73, 0x1b, 0x7e, 0xbf, 0x1c, 0xe9, 0x37, 0x3f, 0x6e, 0x95, 0x8f, 0x3f,
  0x32, 0x8d, 0xb3, 0xbe, 0x0a, 0xa9, 0x6b, 0xbf, 0xb3, 0xf0, 0xc5, 0xbe,
  0xe6, 0x5a, 0xd2, 0xbe, 0xf6, 0x2c, 0x36, 0xbf, 0xad, 0x41, 0xb6, 0x3d,
  0xff, 0x99, 0x9c, 0x3e, 0xc0, 0x39, 0xa7, 0xbe, 0x43, 0xa7, 0xa4, 0xbd,
  0x6b, 0xc5, 0x77, 0xbe, 0x40, 0xe4, 0xd3, 0xbf, 0xb8, 0xaf, 0x51, 0xc0,
  0xe7, 0x97, 0x46, 0x3e, 0xab, 0xe5, 0x94, 0x3c, 0xb9, 0x21, 0x7a, 0xbf,
  0x48, 0x3e, 0x3f, 0xbf, 0xa6, 0x12, 0x2e, 0xc0, 0x13, 0x56, 0x84, 0xbd,
  0x4a, 0x63, 0xa8, 0x3e, 0xe0, 0x3f, 0x31, 0x3f, 0x42, 0xc7, 0xda, 0xbe,
  0xc7, 0xb0, 0x5e, 0xbe, 0xae, 0xf0, 0xaa, 0xbf, 0x49, 0xf8, 0xd8, 0x3e,
  0x01, 0xa4, 0x10, 0xbf, 0x84, 0xe6, 0xf1, 0x3e, 0x03, 0x30, 0x9e, 0x3f,
  0x1a, 0xb6, 0xc3, 0xbf, 0x0e, 0x82, 0xa6, 0xbf, 0xda, 0x0d, 0x02, 0xbe,
  0xba, 0x0d, 0x12, 0x3f, 0x9a, 0xf5, 0x0a, 0x3f, 0xe7, 0x2e, 0x85, 0x3e,
  0x68, 0x4f, 0x64, 0x3f, 0x58, 0x20, 0x21, 0xc0, 0xf8, 0xe5, 0x67, 0xbd,
  0x4d, 0x1e, 0x1c, 0xbe, 0x29, 0xd9, 0xe8, 0xbf, 0x51, 0x6f, 0x34, 0x3e,
  0xf8, 0x1e, 0x89, 0xbe, 0xcb, 0xdc, 0x61, 0xbe, 0x47, 0x08, 0x60, 0x3e,
  0x9a, 0x10, 0xe1, 0xbe, 0xb9, 0x09, 0xa1, 0xbf, 0xaa, 0xb0, 0x60, 0xbf,
  0x01, 0xf5, 0xa4, 0xbf, 0x80, 0xb0, 0x82, 0x3f, 0x02, 0x68, 0xc8, 0x3e,
  0x17, 0xd9, 0x7b, 0xbf, 0x47, 0x88, 0x71, 0xbf, 0x5d, 0x58, 0xef, 0x3e,
  0xa4, 0xfa, 0xff, 0xff, 0xa8, 0xfa, 0xff, 0xff, 0x0f, 0x00, 0x00, 0x00,
  0x4d, 0x4c, 0x49, 0x52, 0x20, 0x43, 0x6f, 0x6e, 0x76, 0x65, 0x72, 0x74,
  0x65, 0x64, 0x2e, 0x00, 0x01, 0x00, 0x00, 0x00, 0x14, 0x00, 0x00, 0x00,
  0x00, 0x00, 0x0e, 0x00, 0x18, 0x00, 0x14, 0x00, 0x10, 0x00, 0x0c, 0x00,
  0x08, 0x00, 0x04, 0x00, 0x0e, 0x00, 0x00, 0x00, 0x14, 0x00, 0x00, 0x00,
  0x1c, 0x00, 0x00, 0x00, 0x34, 0x01, 0x00, 0x00, 0x38, 0x01, 0x00, 0x00,
  0x3c, 0x01, 0x00, 0x00, 0x04, 0x00, 0x00, 0x00, 0x6d, 0x61, 0x69, 0x6e,
  0x00, 0x00, 0x00, 0x00, 0x04, 0x00, 0x00, 0x00, 0xdc, 0x00, 0x00, 0x00,
  0x94, 0x00, 0x00, 0x00, 0x50, 0x00, 0x00, 0x00, 0x14, 0x00, 0x00, 0x00,
  0x00, 0x00, 0x0e, 0x00, 0x1a, 0x00, 0x14, 0x00, 0x10, 0x00, 0x0c, 0x00,
  0x0b, 0x00, 0x04, 0x00, 0x0e, 0x00, 0x00, 0x00, 0x1c, 0x00, 0x00, 0x00,
  0x00, 0x00, 0x00, 0x09, 0x1c, 0x00, 0x00, 0x00, 0x20, 0x00, 0x00, 0x00,
  0x01, 0x00, 0x00, 0x00, 0x00, 0x00, 0x06, 0x00, 0x08, 0x00, 0x04, 0x00,
  0x06, 0x00, 0x00, 0x00, 0x00, 0x00, 0x80, 0x3f, 0x01, 0x00, 0x00, 0x00,
  0x0a, 0x00, 0x00, 0x00, 0x01, 0x00, 0x00, 0x00, 0x09, 0x00, 0x00, 0x00,
  0xce, 0xff, 0xff, 0xff, 0x10, 0x00, 0x00, 0x00, 0x00, 0x00, 0x00, 0x08,
  0x0c, 0x00, 0x00, 0x00, 0x10, 0x00, 0x00, 0x00, 0x6c, 0xfb, 0xff, 0xff,
  0x01, 0x00, 0x00, 0x00, 0x09, 0x00, 0x00, 0x00, 0x03, 0x00, 0x00, 0x00,
  0x08, 0x00, 0x00, 0x00, 0x01, 0x00, 0x00, 0x00, 0x03, 0x00, 0x00, 0x00,
  0x00, 0x00, 0x0e, 0x00, 0x14, 0x00, 0x00, 0x00, 0x10, 0x00, 0x0c, 0x00,
  0x0b, 0x00, 0x04, 0x00, 0x0e, 0x00, 0x00, 0x00, 0x10, 0x00, 0x00, 0x00,
  0x00, 0x00, 0x00, 0x08, 0x10, 0x00, 0x00, 0x00, 0x14, 0x00, 0x00, 0x00,
  0xba, 0xff, 0xff, 0xff, 0x00, 0x00, 0x00, 0x01, 0x01, 0x00, 0x00, 0x00,
  0x08, 0x00, 0x00, 0x00, 0x03, 0x00, 0x00, 0x00, 0x07, 0x00, 0x00, 0x00,
  0x02, 0x00, 0x00, 0x00, 0x04, 0x00, 0x00, 0x00, 0x00, 0x00, 0x0e, 0x00,
  0x16, 0x00, 0x00, 0x00, 0x10, 0x00, 0x0c, 0x00, 0x0b, 0x00, 0x04, 0x00,
  0x0e, 0x00, 0x00, 0x00, 0x18, 0x00, 0x00, 0x00, 0x00, 0x00, 0x00, 0x08,
  0x18, 0x00, 0x00, 0x00, 0x1c, 0x00, 0x00, 0x00, 0x00, 0x00, 0x06, 0x00,
  0x08, 0x00, 0x07, 0x00, 0x06, 0x00, 0x00, 0x00, 0x00, 0x00, 0x00, 0x01,
  0x01, 0x00, 0x00, 0x00, 0x07, 0x00, 0x00, 0x00, 0x03, 0x00, 0x00, 0x00,
  0x00, 0x00, 0x00, 0x00, 0x06, 0x00, 0x00, 0x00, 0x05, 0x00, 0x00, 0x00,
  0x01, 0x00, 0x00, 0x00, 0x0a, 0x00, 0x00, 0x00, 0x01, 0x00, 0x00, 0x00,
  0x00, 0x00, 0x00, 0x00, 0x0b, 0x00, 0x00, 0x00, 0xbc, 0x03, 0x00, 0x00,
  0x64, 0x03, 0x00, 0x00, 0x24, 0x03, 0x00, 0x00, 0xe8, 0x02, 0x00, 0x00,
  0xac, 0x02, 0x00, 0x00, 0x4c, 0x02, 0x00, 0x00, 0xf8, 0x01, 0x00, 0x00,
  0x60, 0x01, 0x00, 0x00, 0xc8, 0x00, 0x00, 0x00, 0x50, 0x00, 0x00, 0x00,
  0x04, 0x00, 0x00, 0x00, 0x86, 0xfc, 0xff, 0xff, 0x00, 0x00, 0x00, 0x01,
  0x10, 0x00, 0x00, 0x00, 0x10, 0x00, 0x00, 0x00, 0x0b, 0x00, 0x00, 0x00,
  0x28, 0x00, 0x00, 0x00, 0x70, 0xfc, 0xff, 0xff, 0x1b, 0x00, 0x00, 0x00,
  0x53, 0x74, 0x61, 0x74, 0x65, 0x66, 0x75, 0x6c, 0x50, 0x61, 0x72, 0x74,
  0x69, 0x74, 0x69, 0x6f, 0x6e, 0x65, 0x64, 0x43, 0x61, 0x6c, 0x6c, 0x5f,
  0x31, 0x3a, 0x30, 0x00, 0x02, 0x00, 0x00, 0x00, 0x01, 0x00, 0x00, 0x00,
  0x04, 0x00, 0x00, 0x00, 0xce, 0xfc, 0xff, 0xff, 0x00, 0x00, 0x00, 0x01,
  0x10, 0x00, 0x00, 0x00, 0x10, 0x00, 0x00, 0x00, 0x0a, 0x00, 0x00, 0x00,
  0x54, 0x00, 0x00, 0x00, 0xb8, 0xfc, 0xff, 0xff, 0x44, 0x00, 0x00, 0x00,
  0x73, 0x65, 0x71, 0x75, 0x65, 0x6e, 0x74, 0x69, 0x61, 0x6c, 0x5f, 0x31,
  0x30, 0x5f, 0x31, 0x2f, 0x64, 0x65, 0x6e, 0x73, 0x65, 0x5f, 0x33, 0x32,
  0x5f, 0x31, 0x2f, 0x4d, 0x61, 0x74, 0x4d, 0x75, 0x6c, 0x3b, 0x73, 0x65,
  0x71, 0x75, 0x65, 0x6e, 0x74, 0x69, 0x61, 0x6c, 0x5f, 0x31, 0x30, 0x5f,
  0x31, 0x2f, 0x64, 0x65, 0x6e, 0x73, 0x65, 0x5f, 0x33, 0x32, 0x5f, 0x31,
  0x2f, 0x42, 0x69, 0x61, 0x73, 0x41, 0x64, 0x64, 0x00, 0x00, 0x00, 0x00,
  0x02, 0x00, 0x00, 0x00, 0x01, 0x00, 0x00, 0x00, 0x04, 0x00, 0x00, 0x00,
  0x42, 0xfd, 0xff, 0xff, 0x00, 0x00, 0x00, 0x01, 0x10, 0x00, 0x00, 0x00,
  0x10, 0x00, 0x00, 0x00, 0x09, 0x00, 0x00, 0x00, 0x74, 0x00, 0x00, 0x00,
  0x2c, 0xfd, 0xff, 0xff, 0x64, 0x00, 0x00, 0x00, 0x73, 0x65, 0x71, 0x75,
  0x65, 0x6e, 0x74, 0x69, 0x61, 0x6c, 0x5f, 0x31, 0x30, 0x5f, 0x31, 0x2f,
  0x64, 0x65, 0x6e, 0x73, 0x65, 0x5f, 0x33, 0x31, 0x5f, 0x31, 0x2f, 0x4d,
  0x61, 0x74, 0x4d, 0x75, 0x6c, 0x3b, 0x73, 0x65, 0x71, 0x75, 0x65, 0x6e,
  0x74, 0x69, 0x61, 0x6c, 0x5f, 0x31, 0x30, 0x5f, 0x31, 0x2f, 0x64, 0x65,
  0x6e, 0x73, 0x65, 0x5f, 0x33, 0x31, 0x5f, 0x31, 0x2f, 0x52, 0x65, 0x6c,
  0x75, 0x3b, 0x73, 0x65, 0x71, 0x75, 0x65, 0x6e, 0x74, 0x69, 0x61, 0x6c,
  0x5f, 0x31, 0x30, 0x5f, 0x31, 0x2f, 0x64, 0x65, 0x6e, 0x73, 0x65, 0x5f,
  0x33, 0x31, 0x5f, 0x31, 0x2f, 0x42, 0x69, 0x61, 0x73, 0x41, 0x64, 0x64,
  0x00, 0x00, 0x00, 0x00, 0x02, 0x00, 0x00, 0x00, 0x01, 0x00, 0x00, 0x00,
  0x0f, 0x00, 0x00, 0x00, 0xd6, 0xfd, 0xff, 0xff, 0x00, 0x00, 0x00, 0x01,
  0x10, 0x00, 0x00, 0x00, 0x10, 0x00, 0x00, 0x00, 0x08, 0x00, 0x00, 0x00,
  0x74, 0x00, 0x00, 0x00, 0xc0, 0xfd, 0xff, 0xff, 0x64, 0x00, 0x00, 0x00,
  0x73, 0x65, 0x71, 0x75, 0x65, 0x6e, 0x74, 0x69, 0x61, 0x6c, 0x5f, 0x31,
  0x30, 0x5f, 0x31, 0x2f, 0x64, 0x65, 0x6e, 0x73, 0x65, 0x5f, 0x33, 0x30,
  0x5f, 0x31, 0x2f, 0x4d, 0x61, 0x74, 0x4d, 0x75, 0x6c, 0x3b, 0x73, 0x65,
  0x71, 0x75, 0x65, 0x6e, 0x74, 0x69, 0x61, 0x6c, 0x5f, 0x31, 0x30, 0x5f,
  0x31, 0x2f, 0x64, 0x65, 0x6e, 0x73, 0x65, 0x5f, 0x33, 0x30, 0x5f, 0x31,
  0x2f, 0x52, 0x65, 0x6c, 0x75, 0x3b, 0x73, 0x65, 0x71, 0x75, 0x65, 0x6e,
  0x74, 0x69, 0x61, 0x6c, 0x5f, 0x31, 0x30, 0x5f, 0x31, 0x2f, 0x64, 0x65,
  0x6e, 0x73, 0x65, 0x5f, 0x33, 0x30, 0x5f, 0x31, 0x2f, 0x42, 0x69, 0x61,
  0x73, 0x41, 0x64, 0x64, 0x00, 0x00, 0x00, 0x00, 0x02, 0x00, 0x00, 0x00,
  0x01, 0x00, 0x00, 0x00, 0x32, 0x00, 0x00, 0x00, 0x6a, 0xfe, 0xff, 0xff,
  0x00, 0x00, 0x00, 0x01, 0x10, 0x00, 0x00, 0x00, 0x10, 0x00, 0x00, 0x00,
  0x07, 0x00, 0x00, 0x00, 0x30, 0x00, 0x00, 0x00, 0x54, 0xfe, 0xff, 0xff,
  0x21, 0x00, 0x00, 0x00, 0x73, 0x65, 0x71, 0x75, 0x65, 0x6e, 0x74, 0x69,
  0x61, 0x6c, 0x5f, 0x31, 0x30, 0x5f, 0x31, 0x2f, 0x64, 0x65, 0x6e, 0x73,
  0x65, 0x5f, 0x33, 0x30, 0x5f, 0x31, 0x2f, 0x4d, 0x61, 0x74, 0x4d, 0x75,
  0x6c, 0x00, 0x00, 0x00, 0x02, 0x00, 0x00, 0x00, 0x32, 0x00, 0x00, 0x00,
  0x24, 0x00, 0x00, 0x00, 0xba, 0xfe, 0xff, 0xff, 0x00, 0x00, 0x00, 0x01,
  0x10, 0x00, 0x00, 0x00, 0x10, 0x00, 0x00, 0x00, 0x06, 0x00, 0x00, 0x00,
  0x40, 0x00, 0x00, 0x00, 0xa4, 0xfe, 0xff, 0xff, 0x31, 0x00, 0x00, 0x00,
  0x73, 0x65, 0x71, 0x75, 0x65, 0x6e, 0x74, 0x69, 0x61, 0x6c, 0x5f, 0x31,
  0x30, 0x5f, 0x31, 0x2f, 0x64, 0x65, 0x6e, 0x73, 0x65, 0x5f, 0x33, 0x30,
  0x5f, 0x31, 0x2f, 0x42, 0x69, 0x61, 0x73, 0x41, 0x64, 0x64, 0x2f, 0x52,
  0x65, 0x61, 0x64, 0x56, 0x61, 0x72, 0x69, 0x61, 0x62, 0x6c, 0x65, 0x4f,
  0x70, 0x00, 0x00, 0x00, 0x01, 0x00, 0x00, 0x00, 0x32, 0x00, 0x00, 0x00,
  0x16, 0xff, 0xff, 0xff, 0x00, 0x00, 0x00, 0x01, 0x10, 0x00, 0x00, 0x00,
  0x10, 0x00, 0x00, 0x00, 0x05, 0x00, 0x00, 0x00, 0x1c, 0x00, 0x00, 0x00,
  0x00, 0xff, 0xff, 0xff, 0x0f, 0x00, 0x00, 0x00, 0x61, 0x72, 0x69, 0x74,
  0x68, 0x2e, 0x63, 0x6f, 0x6e, 0x73, 0x74, 0x61, 0x6e, 0x74, 0x33, 0x00,
  0x01, 0x00, 0x00, 0x00, 0x0f, 0x00, 0x00, 0x00, 0x4e, 0xff, 0xff, 0xff,
  0x00, 0x00, 0x00, 0x01, 0x10, 0x00, 0x00, 0x00, 0x10, 0x00, 0x00, 0x00,
  0x04, 0x00, 0x00, 0x00, 0x1c, 0x00, 0x00, 0x00, 0x38, 0xff, 0xff, 0xff,
  0x0f, 0x00, 0x00, 0x00, 0x61, 0x72, 0x69, 0x74, 0x68, 0x2e, 0x63, 0x6f,
  0x6e, 0x73, 0x74, 0x61, 0x6e, 0x74, 0x32, 0x00, 0x01, 0x00, 0x00, 0x00,
  0x04, 0x00, 0x00, 0x00, 0x86, 0xff, 0xff, 0xff, 0x00, 0x00, 0x00, 0x01,
  0x10, 0x00, 0x00, 0x00, 0x10, 0x00, 0x00, 0x00, 0x03, 0x00, 0x00, 0x00,
  0x1c, 0x00, 0x00, 0x00, 0x70, 0xff, 0xff, 0xff, 0x0f, 0x00, 0x00, 0x00,
  0x61, 0x72, 0x69, 0x74, 0x68, 0x2e, 0x63, 0x6f, 0x6e, 0x73, 0x74, 0x61,
  0x6e, 0x74, 0x31, 0x00, 0x02, 0x00, 0x00, 0x00, 0x0f, 0x00, 0x00, 0x00,
  0x32, 0x00, 0x00, 0x00, 0xc2, 0xff, 0xff, 0xff, 0x00, 0x00, 0x00, 0x01,
  0x10, 0x00, 0x00, 0x00, 0x10, 0x00, 0x00, 0x00, 0x02, 0x00, 0x00, 0x00,
  0x1c, 0x00, 0x00, 0x00, 0xac, 0xff, 0xff, 0xff, 0x0e, 0x00, 0x00, 0x00,
  0x61, 0x72, 0x69, 0x74, 0x68, 0x2e, 0x63, 0x6f, 0x6e, 0x73, 0x74, 0x61,
  0x6e, 0x74, 0x00, 0x00, 0x02, 0x00, 0x00, 0x00, 0x04, 0x00, 0x00, 0x00,
  0x0f, 0x00, 0x00, 0x00, 0x00, 0x00, 0x16, 0x00, 0x18, 0x00, 0x14, 0x00,
  0x00, 0x00, 0x10, 0x00, 0x0c, 0x00, 0x08, 0x00, 0x00, 0x00, 0x00, 0x00,
  0x00, 0x00, 0x07, 0x00, 0x16, 0x00, 0x00, 0x00, 0x00, 0x00, 0x00, 0x01,
  0x14, 0x00, 0x00, 0x00, 0x14, 0x00, 0x00, 0x00, 0x01, 0x00, 0x00, 0x00,
  0x34, 0x00, 0x00, 0x00, 0x04, 0x00, 0x04, 0x00, 0x04, 0x00, 0x00, 0x00,
  0x21, 0x00, 0x00, 0x00, 0x73, 0x65, 0x72, 0x76, 0x69, 0x6e, 0x67, 0x5f,
  0x64, 0x65, 0x66, 0x61, 0x75, 0x6c, 0x74, 0x5f, 0x6b, 0x65, 0x72, 0x61,
  0x73, 0x5f, 0x74, 0x65, 0x6e, 0x73, 0x6f, 0x72, 0x5f, 0x34, 0x30, 0x3a,
  0x30, 0x00, 0x00, 0x00, 0x02, 0x00, 0x00, 0x00, 0x01, 0x00, 0x00, 0x00,
  0x24, 0x00, 0x00, 0x00, 0x02, 0x00, 0x00, 0x00, 0x20, 0x00, 0x00, 0x00,
  0x04, 0x00, 0x00, 0x00, 0xf4, 0xff, 0xff, 0xff, 0x19, 0x00, 0x00, 0x00,
  0x00, 0x00, 0x00, 0x19, 0x0c, 0x00, 0x0c, 0x00, 0x0b, 0x00, 0x00, 0x00,
  0x00, 0x00, 0x04, 0x00, 0x0c, 0x00, 0x00, 0x00, 0x09, 0x00, 0x00, 0x00,
  0x00, 0x00, 0x00, 0x09
};
