const unsigned char model[] = {
  0x1c, 0x00, 0x00, 0x00, 0x54, 0x46, 0x4c, 0x33, 0x14, 0x00, 0x20, 0x00,
  0x1c, 0x00, 0x18, 0x00, 0x14, 0x00, 0x10, 0x00, 0x0c, 0x00, 0x00, 0x00,
  0x08, 0x00, 0x04, 0x00, 0x14, 0x00, 0x00, 0x00, 0x1c, 0x00, 0x00, 0x00,
  0x98, 0x00, 0x00, 0x00, 0xf0, 0x00, 0x00, 0x00, 0x7c, 0x14, 0x00, 0x00,
  0x8c, 0x14, 0x00, 0x00, 0xf8, 0x19, 0x00, 0x00, 0x03, 0x00, 0x00, 0x00,
  0x01, 0x00, 0x00, 0x00, 0x10, 0x00, 0x00, 0x00, 0x00, 0x00, 0x0a, 0x00,
  0x10, 0x00, 0x0c, 0x00, 0x08, 0x00, 0x04, 0x00, 0x0a, 0x00, 0x00, 0x00,
  0x0c, 0x00, 0x00, 0x00, 0x1c, 0x00, 0x00, 0x00, 0x3c, 0x00, 0x00, 0x00,
  0x0f, 0x00, 0x00, 0x00, 0x73, 0x65, 0x72, 0x76, 0x69, 0x6e, 0x67, 0x5f,
  0x64, 0x65, 0x66, 0x61, 0x75, 0x6c, 0x74, 0x00, 0x01, 0x00, 0x00, 0x00,
  0x04, 0x00, 0x00, 0x00, 0x90, 0xff, 0xff, 0xff, 0x0a, 0x00, 0x00, 0x00,
  0x04, 0x00, 0x00, 0x00, 0x08, 0x00, 0x00, 0x00, 0x6f, 0x75, 0x74, 0x70,
  0x75, 0x74, 0x5f, 0x30, 0x00, 0x00, 0x00, 0x00, 0x01, 0x00, 0x00, 0x00,
  0x04, 0x00, 0x00, 0x00, 0x6a, 0xeb, 0xff, 0xff, 0x04, 0x00, 0x00, 0x00,
  0x0f, 0x00, 0x00, 0x00, 0x6b, 0x65, 0x72, 0x61, 0x73, 0x5f, 0x74, 0x65,
  0x6e, 0x73, 0x6f, 0x72, 0x5f, 0x32, 0x38, 0x00, 0x02, 0x00, 0x00, 0x00,
  0x34, 0x00, 0x00, 0x00, 0x04, 0x00, 0x00, 0x00, 0xdc, 0xff, 0xff, 0xff,
  0x0d, 0x00, 0x00, 0x00, 0x04, 0x00, 0x00, 0x00, 0x13, 0x00, 0x00, 0x00,
  0x43, 0x4f, 0x4e, 0x56, 0x45, 0x52, 0x53, 0x49, 0x4f, 0x4e, 0x5f, 0x4d,
  0x45, 0x54, 0x41, 0x44, 0x41, 0x54, 0x41, 0x00, 0x08, 0x00, 0x0c, 0x00,
  0x08, 0x00, 0x04, 0x00, 0x08, 0x00, 0x00, 0x00, 0x0c, 0x00, 0x00, 0x00,
  0x04, 0x00, 0x00, 0x00, 0x13, 0x00, 0x00, 0x00, 0x6d, 0x69, 0x6e, 0x5f,
  0x72, 0x75, 0x6e, 0x74, 0x69, 0x6d, 0x65, 0x5f, 0x76, 0x65, 0x72, 0x73,
  0x69, 0x6f, 0x6e, 0x00, 0x0e, 0x00, 0x00, 0x00, 0x88, 0x13, 0x00, 0x00,
  0x80, 0x13, 0x00, 0x00, 0x00, 0x13, 0x00, 0x00, 0xa8, 0x0f, 0x00, 0x00,
  0x88, 0x0f, 0x00, 0x00, 0x5c, 0x0f, 0x00, 0x00, 0xd4, 0x0e, 0x00, 0x00,
  0xb4, 0x00, 0x00, 0x00, 0xac, 0x00, 0x00, 0x00, 0xa4, 0x00, 0x00, 0x00,
  0x9c, 0x00, 0x00, 0x00, 0x94, 0x00, 0x00, 0x00, 0x74, 0x00, 0x00, 0x00,
  0x04, 0x00, 0x00, 0x00, 0x1e, 0xec, 0xff, 0xff, 0x04, 0x00, 0x00, 0x00,
  0x60, 0x00, 0x00, 0x00, 0x10, 0x00, 0x00, 0x00, 0x00, 0x00, 0x00, 0x00,
  0x08, 0x00, 0x0e, 0x00, 0x08, 0x00, 0x04, 0x00, 0x08, 0x00, 0x00, 0x00,
  0x10, 0x00, 0x00, 0x00, 0x24, 0x00, 0x00, 0x00, 0x00, 0x00, 0x06, 0x00,
  0x08, 0x00, 0x04, 0x00, 0x06, 0x00, 0x00, 0x00, 0x04, 0x00, 0x00, 0x00,
  0x00, 0x00, 0x00, 0x00, 0x0c, 0x00, 0x18, 0x00, 0x14, 0x00, 0x10, 0x00,
  0x0c, 0x00, 0x04, 0x00, 0x0c, 0x00, 0x00, 0x00, 0x48, 0x4b, 0x04, 0x38,
  0xc1, 0x0e, 0x22, 0x7e, 0x02, 0x00, 0x00, 0x00, 0x02, 0x00, 0x00, 0x00,
  0x04, 0x00, 0x00, 0x00, 0x06, 0x00, 0x00, 0x00, 0x32, 0x2e, 0x31, 0x39,
  0x2e, 0x30, 0x00, 0x00, 0x8a, 0xec, 0xff, 0xff, 0x04, 0x00, 0x00, 0x00,
  0x10, 0x00, 0x00, 0x00, 0x31, 0x2e, 0x35, 0x2e, 0x30, 0x00, 0x00, 0x00,
  0x00, 0x00, 0x00, 0x00, 0x00, 0x00, 0x00, 0x00, 0xec, 0xe7, 0xff, 0xff,
  0xf0, 0xe7, 0xff, 0xff, 0xf4, 0xe7, 0xff, 0xff, 0xf8, 0xe7, 0xff, 0xff,
  0xb6, 0xec, 0xff, 0xff, 0x04, 0x00, 0x00, 0x00, 0x10, 0x0e, 0x00, 0x00,
  0xb9, 0x78, 0x3b, 0xbe, 0x26, 0x10, 0x5a, 0x3e, 0x7e, 0xbc, 0xe1, 0xbd,
  0x87, 0x3d, 0x4b, 0xbe, 0x40, 0xab, 0xfc, 0x3d, 0x8a, 0x1f, 0x64, 0xbe,
  0x60, 0xb6, 0x1b, 0xbc, 0xa3, 0x1d, 0x99, 0x3e, 0xde, 0x26, 0x90, 0xbd,
  0x80, 0xed, 0x33, 0x3d, 0x60, 0xe5, 0x69, 0xbc, 0xec, 0xb4, 0x8b, 0x3d,
  0x20, 0x29, 0x82, 0xbe, 0x62, 0x3f, 0x52, 0x3e, 0x0b, 0x04, 0x98, 0x3e,
  0xab, 0xb3, 0x39, 0xbe, 0x68, 0x6a, 0x77, 0xbe, 0xf4, 0x45, 0x8c, 0x3d,
  0x1a, 0x48, 0xce, 0xbd, 0xae, 0xbb, 0x9a, 0xbe, 0xa0, 0x3a, 0xca, 0xbc,
  0xd8, 0x1d, 0x44, 0xbe, 0xd7, 0x17, 0x82, 0x3e, 0xfe, 0x43, 0xc5, 0xbd,
  0x76, 0x3e, 0x9f, 0xbd, 0xe7, 0x8a, 0x4e, 0xbe, 0x08, 0x32, 0x15, 0x3e,
  0x18, 0xf1, 0x33, 0x3e, 0xc0, 0x6d, 0xae, 0x3c, 0x68, 0x62, 0x64, 0x3d,
  0x44, 0x32, 0xef, 0xbd, 0x7c, 0x06, 0x2e, 0x3e, 0x80, 0x84, 0x72, 0xbe,
  0x46, 0x26, 0x44, 0x3e, 0x00, 0x3a, 0x29, 0x3b, 0x3b, 0xdf, 0x8e, 0xbe,
  0x32, 0x36, 0xe5, 0xbd, 0x01, 0x33, 0x23, 0xbe, 0x8f, 0xc0, 0x3a, 0xbe,
  0xcc, 0xfc, 0x53, 0xbe, 0xb4, 0x4d, 0x39, 0xbe, 0x5a, 0x18, 0xa1, 0xbe,
  0x16, 0x1e, 0x05, 0xbe, 0xbe, 0xb1, 0x86, 0xbe, 0x94, 0x1f, 0x20, 0xbe,
  0xab, 0x0e, 0x96, 0x3e, 0x8e, 0x99, 0xc6, 0xbd, 0x72, 0x20, 0xac, 0xbd,
  0x58, 0xf3, 0x2e, 0x3d, 0x1d, 0x4c, 0x31, 0xbe, 0xf2, 0x9a, 0x5b, 0x3e,
  0x32, 0x78, 0x1c, 0xbe, 0x50, 0x03, 0x3f, 0xbd, 0x50, 0x91, 0x39, 0xbd,
  0x52, 0x9d, 0x74, 0xbe, 0xc0, 0xf5, 0xf9, 0x3d, 0xc4, 0x93, 0x90, 0x3d,
  0xc0, 0xe5, 0xe6, 0xbc, 0xc8, 0xe3, 0x38, 0xbd, 0xd8, 0x6e, 0x94, 0x3d,
  0x79, 0x2d, 0x00, 0xbe, 0x70, 0x69, 0x63, 0xbd, 0x98, 0xa4, 0x3a, 0x3d,
  0x51, 0x8d, 0x86, 0xbe, 0x84, 0x34, 0x9b, 0xbd, 0xce, 0x30, 0x46, 0x3e,
  0xb8, 0xe6, 0xa6, 0xbd, 0x56, 0x9b, 0x1f, 0x3e, 0xd0, 0x1c, 0x88, 0xbc,
  0x7c, 0xd5, 0x5d, 0xbe, 0x84, 0x0b, 0x03, 0x3e, 0x60, 0xf1, 0x62, 0x3c,
  0x98, 0x64, 0xa3, 0x3d, 0x76, 0xb2, 0x36, 0x3e, 0xd1, 0x2a, 0x0f, 0xbe,
  0xe6, 0x6f, 0x93, 0xbe, 0x44, 0x16, 0xdf, 0x3d, 0x8e, 0xab, 0x47, 0x3e,
  0x40, 0xbf, 0xe6, 0x3b, 0xba, 0x63, 0x63, 0x3e, 0x40, 0x67, 0x2e, 0xbc,
  0x27, 0xb3, 0x9f, 0x3e, 0xe6, 0x27, 0x6b, 0x3e, 0xee, 0x5b, 0x8f, 0xbe,
  0x9f, 0xbd, 0x8b, 0xbe, 0xf6, 0x18, 0x7a, 0x3e, 0x9e, 0x7d, 0x94, 0xbd,
  0x74, 0xfc, 0x86, 0xbe, 0x9b, 0x97, 0x83, 0xbe, 0xfe, 0x57, 0xeb, 0xbd,
  0x70, 0xc0, 0x28, 0xbd, 0xce, 0x7d, 0x0b, 0xbe, 0xcb, 0xf8, 0x78, 0xbe,
  0x6a, 0x05, 0x5a, 0x3e, 0x40, 0xee, 0x2b, 0x3d, 0x30, 0x69, 0xae, 0x3d,
  0xc9, 0x0b, 0x9a, 0xbe, 0x00, 0x0c, 0x11, 0xba, 0x10, 0x5e, 0xdf, 0x3c,
  0x96, 0x65, 0xee, 0xbd, 0x12, 0x36, 0x53, 0x3e, 0x36, 0x77, 0xfa, 0xbd,
  0xa0, 0x8b, 0x80, 0xbc, 0x80, 0xd0, 0x14, 0xbd, 0xc2, 0x09, 0x73, 0x3e,
  0x18, 0x9b, 0x7a, 0x3d, 0x00, 0x6d, 0xe5, 0xbc, 0x4a, 0xc0, 0x96, 0xbe,
  0x1a, 0xce, 0x6e, 0xbe, 0xbf, 0x8f, 0x9f, 0x3e, 0x8c, 0x8b, 0xf3, 0xbd,
  0xde, 0xe8, 0x8b, 0xbe, 0xce, 0xfe, 0x28, 0x3e, 0x51, 0xa0, 0xa1, 0xbe,
  0xb0, 0xf2, 0xef, 0x3d, 0xb8, 0xc5, 0x28, 0xbd, 0x00, 0x39, 0xf8, 0x3c,
  0x58, 0x75, 0x21, 0x3d, 0xb6, 0x49, 0x5f, 0x3e, 0xc7, 0x01, 0x81, 0x3e,
  0x68, 0x38, 0x3b, 0x3e, 0x38, 0xa1, 0xca, 0x3d, 0x3e, 0xf6, 0x3b, 0x3e,
  0xe2, 0x2c, 0x0d, 0x3e, 0x40, 0x2c, 0xe8, 0xbb, 0x72, 0x92, 0x5a, 0xbe,
  0x30, 0x04, 0x34, 0x3d, 0x25, 0x58, 0x0a, 0xbe, 0x00, 0xb5, 0x1f, 0xbd,
  0x72, 0xed, 0x0d, 0xbe, 0x6f, 0x8d, 0x82, 0x3e, 0xd0, 0x63, 0x6c, 0xbe,
  0xf1, 0x96, 0x65, 0xbe, 0x45, 0xcb, 0x40, 0xbe, 0x60, 0x9f, 0xc8, 0x3d,
  0x24, 0xce, 0x5e, 0xbe, 0x0e, 0x13, 0x6f, 0x3e, 0xf6, 0x67, 0xe8, 0xbd,
  0xd4, 0x6c, 0x08, 0x3e, 0x15, 0x6b, 0x11, 0xbe, 0xf3, 0xfb, 0x90, 0x3e,
  0xea, 0x55, 0x2b, 0x3e, 0x41, 0x18, 0x01, 0xbe, 0x98, 0xe4, 0x0a, 0x3e,
  0xfe, 0xa9, 0x17, 0xbe, 0xd0, 0xd2, 0xc1, 0xbc, 0x00, 0x00, 0x07, 0x3b,
  0xb4, 0xd7, 0x90, 0xbe, 0xb5, 0x38, 0x9b, 0xbe, 0x7b, 0x78, 0x27, 0xbe,
  0xdc, 0x0b, 0x8a, 0xbc, 0xfe, 0xff, 0x17, 0x3e, 0x03, 0x69, 0x42, 0x3e,
  0x00, 0x45, 0x81, 0x3e, 0x4e, 0x82, 0x88, 0x3d, 0x77, 0x9b, 0x8a, 0xbe,
  0x94, 0xe0, 0x60, 0xbd, 0xfb, 0x7b, 0x2d, 0x3f, 0xfd, 0x83, 0x83, 0x3d,
  0xa7, 0x42, 0x94, 0xbe, 0x0b, 0x88, 0x8d, 0xbd, 0xd1, 0xe0, 0xb4, 0x3e,
  0x8f, 0x20, 0xd4, 0x3d, 0xc8, 0xd8, 0xbd, 0x3e, 0x60, 0x20, 0xfa, 0xbd,
  0xf6, 0x7a, 0x28, 0x3e, 0xbe, 0xdb, 0x61, 0x3d, 0xc2, 0xca, 0x4b, 0x3e,
  0x0f, 0x05, 0xd7, 0xbd, 0x5f, 0x15, 0x49, 0xbf, 0xa8, 0x49, 0xb7, 0x3e,
  0xa0, 0xcc, 0x8e, 0xbe, 0x91, 0x01, 0xa8, 0x3e, 0x94, 0x9b, 0xfd, 0xbe,
  0xe0, 0xdb, 0xe8, 0x3d, 0xd5, 0x03, 0x24, 0x3f, 0x69, 0xa0, 0xa6, 0xbe,
  0x6a, 0x2d, 0x77, 0x3e, 0x66, 0xf6, 0xa7, 0x3c, 0x61, 0x00, 0x9e, 0x3d,
  0xd4, 0xe7, 0xda, 0x3d, 0xaa, 0x5f, 0xa0, 0xbe, 0x7f, 0x38, 0x8e, 0x3e,
  0xab, 0xe9, 0x92, 0xbe, 0xb8, 0x0a, 0x22, 0xbe, 0xf8, 0x0b, 0x08, 0xbd,
  0xb8, 0xfd, 0x50, 0x3d, 0x4a, 0x47, 0x5c, 0x3e, 0x40, 0x54, 0xbe, 0x3d,
  0xc2, 0xb3, 0x31, 0x3e, 0x15, 0xfc, 0x82, 0xbe, 0x91, 0xef, 0xa0, 0x3e,
  0xb8, 0x97, 0x76, 0xbe, 0x13, 0x05, 0xa0, 0x3e, 0x16, 0x79, 0x39, 0x3e,
  0xf0, 0x3d, 0x5f, 0xbd, 0xd5, 0x47, 0x87, 0xbe, 0x98, 0xc8, 0x9d, 0xbe,
  0xc0, 0xe5, 0xac, 0xbc, 0xdc, 0x08, 0x02, 0x3e, 0x7a, 0xd6, 0x4d, 0xbe,
  0xa0, 0x2c, 0x0a, 0x3c, 0xf5, 0x80, 0xa0, 0x3e, 0xf5, 0x12, 0x35, 0xbe,
  0x18, 0x8d, 0x87, 0xbe, 0x22, 0x9c, 0x66, 0x3e, 0x92, 0x67, 0x4f, 0xbe,
  0x7a, 0x4a, 0xdf, 0xbd, 0x20, 0x9c, 0x75, 0xbd, 0x50, 0xdf, 0x35, 0xbd,
  0x54, 0xfa, 0xd4, 0xbd, 0x86, 0xe9, 0xaf, 0xbd, 0xde, 0x09, 0xef, 0xbd,
  0x2c, 0x55, 0xfa, 0x3d, 0x58, 0x06, 0x44, 0xbd, 0x20, 0x7f, 0xe8, 0x3c,
  0xc0, 0xa9, 0x19, 0xbc, 0xe2, 0x39, 0x99, 0xbd, 0x43, 0x22, 0x63, 0xbe,
  0x50, 0x89, 0x4c, 0xbd, 0xdc, 0x59, 0xca, 0xbd, 0x2c, 0x61, 0x9c, 0x3d,
  0xc5, 0x28, 0x0a, 0xbe, 0x90, 0x7d, 0x66, 0x3d, 0x5e, 0x9d, 0x1f, 0x3e,
  0x72, 0x3b, 0xa3, 0xbd, 0xe0, 0x76, 0x1b, 0x3c, 0xf2, 0x1e, 0x6d, 0x3e,
  0xeb, 0x00, 0x99, 0xbe, 0xbe, 0x55, 0xfc, 0xbd, 0x42, 0xfc, 0x22, 0x3e,
  0x6a, 0xa8, 0x52, 0x3e, 0x2e, 0xf3, 0x1b, 0x3e, 0xe0, 0x6f, 0x90, 0xbc,
  0x0f, 0x73, 0x9b, 0xbe, 0x9e, 0x6a, 0x9f, 0xbd, 0x50, 0xe8, 0x22, 0x3e,
  0x74, 0x3b, 0x1e, 0x3e, 0xae, 0xed, 0x85, 0xbe, 0x3c, 0xfb, 0xac, 0xbd,
  0x46, 0x5d, 0x3c, 0xbe, 0x8a, 0x86, 0x35, 0xbe, 0x8b, 0x9b, 0x8d, 0x3e,
  0x02, 0x96, 0x4d, 0x3e, 0x56, 0x59, 0x91, 0xbe, 0x38, 0xb5, 0x14, 0xbe,
  0x90, 0x61, 0xdf, 0xbd, 0x38, 0xcf, 0xdc, 0x3d, 0xa0, 0xa4, 0x1d, 0x3c,
  0x30, 0x25, 0xba, 0x3d, 0x30, 0x85, 0xc0, 0xbc, 0x53, 0xb0, 0x83, 0x3e,
  0x90, 0x3f, 0xea, 0x3c, 0x6e, 0x3b, 0x72, 0x3e, 0x30, 0x29, 0x91, 0x3d,
  0x30, 0x99, 0x8d, 0xbc, 0xb0, 0xa2, 0xd1, 0x3c, 0xcc, 0x90, 0xd9, 0x3d,
  0x7f, 0xc9, 0x17, 0xbe, 0xb8, 0x2b, 0x0b, 0xbd, 0x20, 0xbf, 0x0b, 0x3c,
  0x1c, 0xae, 0x84, 0xbd, 0xb9, 0x8f, 0x37, 0xbe, 0x06, 0x52, 0x04, 0xbe,
  0xd7, 0x38, 0x41, 0xbe, 0x97, 0xbc, 0x01, 0xbe, 0x25, 0xfc, 0x88, 0x3e,
  0xb6, 0x74, 0xd8, 0xbd, 0x40, 0x45, 0x1a, 0xbe, 0x2f, 0xf2, 0x23, 0xbe,
  0x8a, 0x58, 0xb4, 0xbe, 0x9b, 0xe1, 0xae, 0x3e, 0xd7, 0xda, 0x5f, 0x3e,
  0xd8, 0x98, 0x30, 0xbe, 0x21, 0x89, 0x13, 0xbc, 0xb1, 0xeb, 0x43, 0x3d,
  0xe2, 0xf5, 0xc1, 0xbe, 0x7f, 0xac, 0x48, 0xbf, 0x89, 0x2c, 0x55, 0x3e,
  0x4d, 0xba, 0x54, 0x3e, 0x79, 0x82, 0x02, 0xbb, 0x01, 0xc5, 0xa8, 0xbe,
  0xff, 0xd5, 0x9b, 0xbe, 0x99, 0xf5, 0xad, 0x3c, 0x49, 0x6c, 0x2d, 0xbe,
  0x66, 0xa5, 0x21, 0x3e, 0xe2, 0x28, 0xc9, 0x3e, 0xa4, 0x37, 0xd3, 0xbd,
  0xa4, 0x79, 0xc8, 0x3e, 0xb7, 0xdb, 0x6c, 0x3f, 0xef, 0xe3, 0x86, 0xbc,
  0x82, 0x8b, 0x99, 0x3d, 0xc6, 0xd2, 0xb1, 0xbe, 0xf0, 0x0e, 0x06, 0x3f,
  0x16, 0x1a, 0x99, 0xbe, 0xd7, 0x38, 0x8e, 0xbe, 0x89, 0xd5, 0x35, 0x3f,
  0xf2, 0x7d, 0xbd, 0xbd, 0x31, 0x7d, 0xd4, 0xbd, 0xe8, 0x66, 0x9c, 0xbe,
  0x34, 0xf8, 0x83, 0xbe, 0x5c, 0xd8, 0xa7, 0xbd, 0xa8, 0xe5, 0x51, 0xbe,
  0x15, 0xc5, 0x95, 0x3e, 0x68, 0x39, 0x13, 0x3e, 0x99, 0x4c, 0x70, 0xbe,
  0xab, 0xe0, 0x02, 0xbe, 0x64, 0x5f, 0x8d, 0x3d, 0x50, 0xe4, 0x68, 0x3d,
  0x08, 0xac, 0x06, 0x3d, 0xb5, 0x6a, 0x89, 0xbe, 0x51, 0xf3, 0x4e, 0xbe,
  0x33, 0xd1, 0x8f, 0x3e, 0x14, 0xbc, 0x91, 0x3d, 0xa8, 0x21, 0x5d, 0xbd,
  0x78, 0x32, 0x48, 0x3d, 0xc0, 0xfb, 0x7e, 0xbc, 0x2e, 0xbb, 0x81, 0xbe,
  0x1b, 0x83, 0x99, 0xbe, 0x88, 0xa1, 0xb0, 0x3d, 0x10, 0xaa, 0x44, 0x3d,
  0x18, 0x9e, 0xa1, 0xbe, 0x51, 0xe3, 0x29, 0xbe, 0x75, 0xc4, 0x91, 0xbe,
  0x3c, 0xea, 0xf2, 0x3d, 0xfe, 0xfd, 0x48, 0xbe, 0x55, 0xae, 0x89, 0xbe,
  0xe3, 0xb3, 0x91, 0x3e, 0x18, 0x91, 0x8b, 0xbe, 0xb9, 0x9a, 0x82, 0x3e,
  0xe8, 0xea, 0xeb, 0x3d, 0x03, 0x20, 0xbc, 0x3e, 0xbf, 0x8b, 0x26, 0xbe,
  0xe0, 0xad, 0x2c, 0xbe, 0x36, 0x47, 0xdc, 0xbd, 0xd8, 0x81, 0x07, 0xbe,
  0xc1, 0x98, 0x4a, 0x3d, 0x41, 0x20, 0xc6, 0x3e, 0x5e, 0x78, 0xdb, 0xbe,
  0x29, 0x5d, 0xca, 0xbd, 0x51, 0xe7, 0x34, 0xbe, 0x65, 0x39, 0x31, 0x3e,
  0xac, 0x59, 0x8e, 0x3d, 0x7e, 0xd0, 0x2f, 0x3e, 0x56, 0xe6, 0xa2, 0x3d,
  0xe9, 0xa8, 0xff, 0xbc, 0x11, 0xa7, 0x9d, 0x3c, 0xfd, 0xed, 0x61, 0x3e,
  0x3f, 0x97, 0x9a, 0xbe, 0x2e, 0xb2, 0x22, 0xbf, 0x7a, 0x68, 0x3e, 0x3f,
  0x7e, 0x5d, 0x86, 0xbe, 0x27, 0xfa, 0x34, 0x3e, 0x0e, 0xcb, 0xbd, 0xbd,
  0x8f, 0x45, 0x03, 0x3f, 0x5e, 0x13, 0x08, 0x3f, 0xa2, 0x03, 0x8b, 0xbe,
  0x41, 0xf1, 0x58, 0x3e, 0x8c, 0x69, 0xa3, 0x3d, 0x9c, 0xd4, 0xbc, 0x3e,
  0xe4, 0x80, 0x4a, 0xbc, 0x5e, 0x0c, 0x53, 0x3e, 0x12, 0x46, 0x63, 0x3e,
  0x77, 0xff, 0x2a, 0xbe, 0x89, 0x1b, 0xe3, 0x3d, 0x5b, 0x10, 0x62, 0x3e,
  0x06, 0x03, 0xdf, 0x3a, 0xf9, 0x5d, 0x7c, 0xbe, 0x13, 0xcd, 0xc6, 0x3c,
  0xa5, 0x6e, 0xec, 0xbd, 0x7c, 0x5a, 0xc8, 0x3d, 0xe9, 0x4a, 0xc7, 0xbd,
  0x63, 0x19, 0x39, 0x3e, 0x0d, 0x0b, 0x92, 0xbe, 0x3e, 0x18, 0x86, 0x3e,
  0xb4, 0x76, 0xe3, 0xbb, 0x0f, 0xd9, 0x85, 0x3e, 0xfb, 0xf1, 0xdd, 0xbe,
  0x08, 0x64, 0x56, 0x3e, 0x78, 0x58, 0x7e, 0x3f, 0xf9, 0x5a, 0x12, 0xbf,
  0x5a, 0x67, 0xdc, 0x3e, 0xdc, 0xe5, 0x15, 0x3d, 0x46, 0x86, 0x7f, 0x3d,
  0x0e, 0x91, 0x01, 0xbf, 0xe5, 0x83, 0x15, 0xbf, 0xe0, 0xdb, 0x00, 0x3e,
  0x08, 0xad, 0x97, 0xbe, 0x8a, 0xa8, 0x92, 0x3e, 0xe7, 0xab, 0x01, 0xbe,
  0x46, 0xf6, 0x86, 0x3e, 0x00, 0x90, 0xcc, 0x3d, 0x7c, 0xc2, 0x02, 0xbe,
  0xb8, 0xc9, 0x11, 0xbe, 0xf2, 0x7a, 0x2b, 0x3e, 0xc8, 0xc0, 0x9d, 0xbe,
  0x51, 0x9f, 0x58, 0x3e, 0x07, 0x77, 0x1f, 0x3f, 0x99, 0x2b, 0x0a, 0xbc,
  0x07, 0x8f, 0x11, 0x3e, 0x17, 0xff, 0x05, 0x3e, 0x84, 0x3f, 0x70, 0xbe,
  0xbf, 0xaa, 0x66, 0x3e, 0x44, 0x24, 0x50, 0x3e, 0xfe, 0x40, 0xb0, 0xbe,
  0x15, 0xd8, 0x83, 0x3e, 0x77, 0xa0, 0x29, 0x3c, 0x46, 0xcd, 0xc3, 0x3e,
  0x8c, 0xfb, 0x43, 0xbd, 0x97, 0x02, 0x1a, 0xbf, 0x1f, 0x43, 0xf7, 0x3e,
  0x3c, 0x2d, 0xd1, 0xbe, 0x23, 0xca, 0x56, 0x3e, 0xa5, 0x87, 0x15, 0xbe,
  0x7b, 0xef, 0x31, 0xbd, 0x0b, 0x26, 0x1e, 0x3f, 0x9f, 0x95, 0xf9, 0xbe,
  0xf8, 0x8c, 0xa6, 0xbe, 0xef, 0x73, 0x15, 0xbe, 0x05, 0x64, 0x0c, 0x3e,
  0x36, 0x2f, 0x49, 0x3e, 0x83, 0x34, 0x56, 0x3e, 0xad, 0x8e, 0xbb, 0xbc,
  0xba, 0xa5, 0x3b, 0x3e, 0x3f, 0x5a, 0x7c, 0xbe, 0xde, 0x59, 0xf2, 0xbd,
  0x35, 0x43, 0x75, 0x3e, 0x73, 0xeb, 0xf6, 0xbd, 0xaa, 0x5d, 0x25, 0x3e,
  0x7a, 0x12, 0x17, 0x3e, 0x43, 0x86, 0x5a, 0x3e, 0x79, 0x9b, 0x19, 0x3e,
  0x07, 0x6c, 0x68, 0xbe, 0xff, 0xf3, 0x6e, 0xbe, 0x89, 0x17, 0x6b, 0xbe,
  0xbb, 0xf7, 0x92, 0x3e, 0x20, 0x00, 0x33, 0xbe, 0x20, 0x65, 0x9a, 0xbd,
  0xb4, 0x3e, 0x37, 0xbe, 0x4c, 0xe1, 0x5d, 0x3e, 0x03, 0x38, 0x78, 0xbe,
  0x65, 0x31, 0x0e, 0x3e, 0x55, 0xaf, 0x71, 0x3c, 0x42, 0xf5, 0xbd, 0xbd,
  0xa1, 0xa4, 0x97, 0x3e, 0x94, 0xe2, 0x44, 0x3e, 0x30, 0x14, 0x7b, 0xbe,
  0x8b, 0xdb, 0x96, 0xbe, 0x51, 0x73, 0xb4, 0xbb, 0xc7, 0x99, 0xa2, 0xbe,
  0x2c, 0x70, 0x71, 0xbe, 0x3c, 0xd7, 0x85, 0x3e, 0xa4, 0xe2, 0x97, 0x3d,
  0x81, 0xb2, 0x1a, 0x3e, 0x6d, 0x42, 0x2a, 0x3e, 0xe2, 0xb0, 0x22, 0xbd,
  0xeb, 0x62, 0x53, 0x3e, 0x54, 0xfb, 0x47, 0x3f, 0x9e, 0x3c, 0x38, 0x3d,
  0x09, 0x87, 0x4b, 0xbe, 0x99, 0xed, 0x09, 0xbc, 0x89, 0x5c, 0x94, 0x3e,
  0xaa, 0x35, 0x81, 0x3e, 0x12, 0x0f, 0x57, 0x3e, 0x80, 0x16, 0xe3, 0xbc,
  0x1e, 0xb5, 0x92, 0xbe, 0x10, 0x25, 0x8a, 0xbe, 0xef, 0xee, 0xcd, 0x3e,
  0x78, 0x92, 0x57, 0xbe, 0x9d, 0xb0, 0x76, 0xbf, 0xdc, 0xce, 0x10, 0x3f,
  0x02, 0x02, 0xbe, 0xbe, 0x74, 0x3c, 0x1d, 0xbd, 0xfc, 0x20, 0x5f, 0xbe,
  0x68, 0xb8, 0x15, 0x3f, 0x36, 0x19, 0x17, 0x3f, 0xca, 0x26, 0x12, 0xbd,
  0x74, 0x0e, 0x0f, 0x3e, 0x7e, 0xdb, 0x29, 0xbe, 0x94, 0xbf, 0xca, 0x3e,
  0x1c, 0x62, 0x27, 0xbc, 0xd2, 0x9e, 0x6a, 0x3e, 0x61, 0x88, 0x47, 0x3e,
  0x8c, 0xba, 0x3f, 0x3e, 0x5f, 0xaa, 0xad, 0x3e, 0x0e, 0x5d, 0x85, 0x3e,
  0x72, 0x4a, 0xa9, 0x3c, 0xf7, 0x53, 0xcd, 0xbe, 0xf8, 0x1b, 0x67, 0x3e,
  0x87, 0x32, 0xf9, 0xbd, 0xc1, 0x48, 0x5c, 0x3d, 0x14, 0x0a, 0x7b, 0xbd,
  0x5d, 0x9a, 0x23, 0x3b, 0x44, 0x50, 0xa0, 0x3c, 0x66, 0x83, 0xd1, 0x3e,
  0xf9, 0xc5, 0x8d, 0xbe, 0x18, 0x22, 0xb4, 0xbd, 0x4b, 0x7e, 0xb3, 0xbe,
  0x9f, 0xd4, 0x19, 0xbd, 0xcf, 0x79, 0x4e, 0x3f, 0x86, 0x4b, 0x9c, 0xbe,
  0x54, 0x11, 0x2b, 0xbe, 0x7f, 0x13, 0xf9, 0x3d, 0x8d, 0x5d, 0x0a, 0x3f,
  0xa0, 0x63, 0x48, 0xbe, 0xdc, 0x7e, 0x87, 0xbf, 0x73, 0x85, 0x71, 0x3e,
  0x3e, 0x6e, 0xa2, 0xbe, 0x05, 0xcc, 0xff, 0x3d, 0xff, 0xc2, 0x59, 0x3d,
  0xd6, 0xc4, 0x40, 0xbe, 0xd5, 0x41, 0xb5, 0xbd, 0xce, 0xe3, 0xbd, 0xbd,
  0x5c, 0x5e, 0x96, 0x3e, 0xb5, 0xf7, 0x03, 0xbe, 0x95, 0xf0, 0x55, 0x3e,
  0x0d, 0x26, 0x04, 0x3e, 0x2c, 0xe2, 0x10, 0xbf, 0x91, 0xe5, 0xbf, 0x3e,
  0x1a, 0x64, 0x04, 0x3d, 0xf0, 0xea, 0xa6, 0x3e, 0x2c, 0x75, 0xa3, 0x3c,
  0x98, 0x84, 0xaf, 0xbd, 0x46, 0x46, 0x21, 0x3e, 0x88, 0x69, 0x82, 0x3e,
  0xb6, 0xa4, 0xf1, 0x3a, 0xbf, 0xfe, 0x58, 0xbd, 0xed, 0xc2, 0x06, 0xbd,
  0x5a, 0x28, 0xed, 0x3e, 0x5e, 0xac, 0xe5, 0x3e, 0x0f, 0xe2, 0xb1, 0xbe,
  0xe7, 0xcd, 0xfd, 0x3c, 0x4d, 0x00, 0x7c, 0xbe, 0x62, 0x3b, 0xaf, 0x3e,
  0x96, 0x24, 0xf7, 0xbe, 0x61, 0xa3, 0x16, 0xbf, 0x79, 0xf9, 0x2c, 0x3c,
  0x1c, 0xa6, 0x65, 0x3e, 0x3c, 0x5d, 0xae, 0x3e, 0x80, 0xe2, 0xc0, 0xbe,
  0x97, 0x85, 0x80, 0x3d, 0xf9, 0x85, 0x59, 0x3e, 0xa5, 0xd5, 0xda, 0x3d,
  0xab, 0x0f, 0x4a, 0xbe, 0x66, 0x23, 0xd0, 0x3d, 0x38, 0x87, 0xcb, 0xbd,
  0x72, 0x0c, 0xff, 0xbd, 0xe2, 0x6b, 0x33, 0xbf, 0x18, 0x41, 0x7e, 0x3e,
  0x12, 0xc7, 0x44, 0x3e, 0xc4, 0xf2, 0x08, 0xbd, 0x3f, 0x9a, 0xef, 0x3c,
  0xc6, 0x13, 0x9a, 0xbe, 0xc1, 0xb1, 0xb6, 0xbe, 0x5a, 0x6f, 0xa2, 0x3e,
  0x87, 0x5a, 0x84, 0x3e, 0x2e, 0xaa, 0x97, 0x3d, 0xe7, 0x3b, 0xe8, 0x3d,
  0x02, 0xea, 0x03, 0x3f, 0xd7, 0x3a, 0x82, 0x3f, 0x12, 0x8a, 0x2d, 0xbf,
  0x4e, 0x1f, 0x6f, 0x3e, 0xbe, 0x3c, 0x96, 0xbd, 0xdf, 0xe7, 0xee, 0x3d,
  0x3a, 0xf0, 0x5b, 0xbe, 0xb0, 0x6b, 0x7c, 0xbf, 0x2c, 0x37, 0xbd, 0x3e,
  0xf1, 0x84, 0xc6, 0x3d, 0x5a, 0xe0, 0x96, 0x3e, 0x60, 0xc6, 0x20, 0xbe,
  0x04, 0xd3, 0xd3, 0xbd, 0x6a, 0x4e, 0xe6, 0xbd, 0x3c, 0xc5, 0x2c, 0xbe,
  0x67, 0x81, 0x8a, 0x3e, 0xa2, 0x21, 0x5b, 0x3e, 0xbb, 0x2b, 0x06, 0xbe,
  0x41, 0xfc, 0x93, 0x3e, 0x29, 0x49, 0x09, 0xbe, 0x56, 0xe3, 0x9c, 0xbd,
  0xa4, 0xe2, 0x87, 0x3d, 0xd8, 0xe0, 0x34, 0x3d, 0x0a, 0x18, 0xd9, 0xbd,
  0x2b, 0xe1, 0x8b, 0x3e, 0xe4, 0xac, 0x23, 0xbe, 0x3c, 0xf4, 0x1c, 0xbe,
  0xeb, 0xfb, 0x65, 0xbe, 0x93, 0x38, 0x97, 0xbe, 0xce, 0x45, 0x51, 0x3e,
  0x20, 0x8f, 0x89, 0xbe, 0xd5, 0xbf, 0x4e, 0xbe, 0x18, 0xc3, 0x17, 0x3e,
  0x3b, 0x88, 0x37, 0xbe, 0x20, 0xe0, 0xb6, 0xbc, 0x6a, 0xf8, 0x77, 0x3e,
  0x08, 0x5e, 0x7e, 0x3d, 0x2c, 0xed, 0xe2, 0xbd, 0xfb, 0x43, 0x86, 0x3e,
  0x6c, 0xd2, 0xdc, 0x3d, 0x4e, 0xe8, 0x61, 0xbe, 0xd6, 0x12, 0x1e, 0xbe,
  0x4d, 0xbd, 0x11, 0xbe, 0x8f, 0x98, 0xb2, 0xbd, 0x9d, 0x5a, 0x6f, 0xbd,
  0x21, 0x66, 0x49, 0x3e, 0xc0, 0xc2, 0xb3, 0xbe, 0x05, 0xca, 0x47, 0xbd,
  0x0a, 0x67, 0xb9, 0x3e, 0x54, 0xf8, 0xb8, 0x3e, 0x4f, 0xe4, 0xe8, 0xbe,
  0x45, 0x56, 0x71, 0x3d, 0xed, 0xe9, 0xf2, 0x3d, 0x2f, 0xc9, 0xd4, 0x3e,
  0x37, 0x0f, 0x9e, 0x3e, 0x6e, 0xab, 0x07, 0xbe, 0x7e, 0xbb, 0xac, 0x3d,
  0xaf, 0x85, 0xd5, 0xbd, 0x7f, 0xd3, 0x1e, 0xbe, 0x10, 0x8b, 0x4e, 0xbe,
  0xff, 0xea, 0xa0, 0xbe, 0x96, 0x49, 0x1a, 0xbf, 0x08, 0xbf, 0x0f, 0x3f,
  0x7a, 0xa9, 0xc6, 0xbd, 0xb2, 0x12, 0x8a, 0x3e, 0xcb, 0x6b, 0xb7, 0xbe,
  0x4b, 0x57, 0x13, 0x3f, 0x7b, 0x86, 0x63, 0x3f, 0xe2, 0x51, 0xcd, 0x3d,
  0xe3, 0xf8, 0x8c, 0xbe, 0x0c, 0xb4, 0x39, 0xbe, 0xc2, 0x8c, 0xaa, 0x3e,
  0x5f, 0xc2, 0x05, 0xbe, 0x8e, 0x6f, 0x41, 0x3e, 0xc5, 0xf3, 0x72, 0x3e,
  0x10, 0x93, 0x56, 0xbe, 0xaa, 0x34, 0xa7, 0xbe, 0x68, 0x23, 0x4d, 0x3e,
  0x37, 0xfa, 0xc4, 0xbd, 0x9b, 0x93, 0xfe, 0x3e, 0x85, 0x02, 0xa2, 0xbe,
  0x2b, 0xa3, 0x3f, 0x3d, 0x7d, 0xa4, 0x3a, 0xbe, 0x88, 0x03, 0x6e, 0xbd,
  0xa6, 0xdc, 0x80, 0x3d, 0x2b, 0x92, 0xf2, 0x3d, 0xd6, 0xf5, 0x8f, 0x3d,
  0xf2, 0xbd, 0x81, 0x3e, 0xb6, 0xb7, 0xa0, 0xbd, 0x13, 0x05, 0x35, 0x3d,
  0x98, 0xef, 0x5e, 0xbd, 0x19, 0x99, 0x40, 0xbf, 0xda, 0x60, 0x81, 0x3e,
  0x84, 0xde, 0x00, 0xbe, 0x39, 0x4b, 0x8c, 0x3e, 0x85, 0xc8, 0x22, 0xbe,
  0xe6, 0xea, 0x01, 0x3f, 0x23, 0x46, 0x4b, 0x3f, 0xd0, 0xf3, 0xc9, 0xbe,
  0xb3, 0x06, 0xea, 0x3d, 0x9b, 0x1a, 0x33, 0x3d, 0x72, 0xc7, 0xc7, 0x3e,
  0xdb, 0x0c, 0xef, 0x3d, 0xbb, 0xc3, 0xf3, 0xbd, 0xd0, 0x50, 0x96, 0x3c,
  0x5b, 0x55, 0x3b, 0xbe, 0x50, 0x22, 0x2f, 0xbd, 0x10, 0x1c, 0x45, 0x3e,
  0x65, 0x18, 0x28, 0xbe, 0x32, 0xc5, 0x9f, 0xbe, 0x94, 0xdc, 0x9a, 0xbd,
  0x5d, 0x1d, 0x9e, 0x3c, 0xc1, 0x13, 0x2a, 0xbe, 0xdd, 0xae, 0xa5, 0x3d,
  0x5f, 0xb3, 0x68, 0xbe, 0x9f, 0x6b, 0x4b, 0x3e, 0xa8, 0x9f, 0x05, 0xbc,
  0xb2, 0xce, 0x98, 0x3d, 0x08, 0x9c, 0x7a, 0x3e, 0x97, 0x58, 0x13, 0xbd,
  0x2f, 0x33, 0x84, 0x3e, 0xd8, 0x7c, 0x55, 0xbe, 0xf4, 0xbf, 0x62, 0x3e,
  0x07, 0xd1, 0x82, 0xbe, 0xf2, 0x3a, 0x80, 0x3d, 0x23, 0xcd, 0x48, 0xbe,
  0x9d, 0x6d, 0x19, 0x3e, 0x85, 0xd7, 0x67, 0x3e, 0x69, 0xed, 0x92, 0xbe,
  0x3e, 0x6c, 0x03, 0xbe, 0x85, 0x85, 0x88, 0x3e, 0xb8, 0xbd, 0x0d, 0x3e,
  0x76, 0xf4, 0x73, 0x3e, 0xb5, 0x1d, 0x94, 0xbe, 0x9e, 0xde, 0x96, 0x3e,
  0xd6, 0x86, 0xd8, 0x3d, 0x9f, 0x2b, 0x26, 0x3d, 0x7e, 0xda, 0x92, 0x3d,
  0x2e, 0xad, 0x5f, 0xbd, 0xcf, 0x71, 0xf8, 0x3d, 0xb8, 0x61, 0x8b, 0xbd,
  0xcc, 0x3b, 0x5f, 0xbe, 0xb1, 0x72, 0x99, 0xbd, 0x02, 0x64, 0x6a, 0x3b,
  0x34, 0x66, 0x9f, 0xbe, 0x26, 0xa9, 0x18, 0xbe, 0xa5, 0xf4, 0x84, 0xbd,
  0x28, 0x76, 0xd6, 0x3d, 0xd4, 0x37, 0x8c, 0x3e, 0x56, 0x48, 0xf1, 0x3d,
  0x37, 0xdd, 0x5b, 0xbe, 0xde, 0xd7, 0xde, 0xbd, 0x39, 0xad, 0x12, 0xbd,
  0x98, 0xde, 0xd6, 0x3d, 0xf8, 0xd2, 0x14, 0x3e, 0xf9, 0x4f, 0x44, 0x3e,
  0x79, 0x9c, 0x0a, 0xbe, 0x6e, 0x5d, 0x94, 0xbe, 0x71, 0x61, 0xab, 0x3d,
  0x5b, 0x1f, 0x5a, 0x3e, 0xcc, 0x48, 0x68, 0xbe, 0x57, 0xe5, 0x94, 0x3d,
  0xd8, 0x37, 0x54, 0x3d, 0x9c, 0x74, 0x21, 0xbe, 0xf1, 0x1b, 0x82, 0x3e,
  0x20, 0xed, 0x7e, 0x3d, 0xb0, 0x63, 0x9f, 0xbc, 0xfa, 0xcf, 0x5a, 0x3e,
  0x00, 0x9e, 0x09, 0xbc, 0x78, 0xf4, 0x7d, 0xbd, 0xe8, 0xb2, 0xce, 0xbd,
  0xe8, 0x59, 0x84, 0xbe, 0x44, 0xee, 0x73, 0xbe, 0x30, 0xa4, 0xe2, 0xbc,
  0xfc, 0x3f, 0xec, 0x3d, 0x70, 0x61, 0xac, 0x3c, 0x56, 0x0e, 0x66, 0x3e,
  0x10, 0x9c, 0x0a, 0x3d, 0x62, 0xcc, 0x5e, 0x3e, 0xb0, 0x67, 0x25, 0x3d,
  0xa3, 0x39, 0x32, 0xbe, 0x28, 0xd4, 0x92, 0xbe, 0x1a, 0x2e, 0x9b, 0xbe,
  0x78, 0x81, 0x59, 0x3d, 0xf6, 0xde, 0x28, 0x3e, 0x40, 0x89, 0xb9, 0xbd,
  0xec, 0x67, 0x25, 0x3e, 0x0e, 0x0b, 0x76, 0x3e, 0xb3, 0x0f, 0x3f, 0xbe,
  0x2a, 0x0d, 0x94, 0xbe, 0x9c, 0xc6, 0xad, 0xbd, 0x3c, 0x4a, 0x04, 0xbe,
  0x02, 0x09, 0x40, 0xbd, 0x1d, 0xc0, 0x50, 0x3e, 0x84, 0xf2, 0x72, 0xbc,
  0x1f, 0x6a, 0xb2, 0x3e, 0xb9, 0x1f, 0x86, 0x3d, 0xe7, 0x7e, 0x87, 0xbe,
  0xc1, 0x86, 0x2a, 0x3e, 0x23, 0x38, 0x56, 0xbf, 0x69, 0xcb, 0xcf, 0x3e,
  0xc5, 0xeb, 0x6f, 0x3e, 0x28, 0x26, 0xb7, 0x3e, 0x71, 0x8a, 0xc5, 0xbe,
  0xde, 0xec, 0x0f, 0x3e, 0xba, 0x2a, 0xac, 0xbc, 0xfd, 0x59, 0xce, 0x3e,
  0xae, 0x2e, 0x68, 0x3d, 0xb0, 0xa0, 0x9d, 0x3e, 0xb1, 0x96, 0xdb, 0xbe,
  0x32, 0x72, 0x92, 0xbd, 0x7e, 0xb9, 0x1d, 0x3f, 0x9a, 0x0d, 0xdc, 0xbe,
  0x6c, 0x7a, 0x24, 0x3e, 0x5d, 0x66, 0x84, 0xbe, 0x49, 0xfc, 0x07, 0x3f,
  0xbf, 0xfa, 0x0b, 0xbf, 0xa6, 0x0e, 0x54, 0xbf, 0xef, 0xc5, 0xcb, 0x3e,
  0xf2, 0x36, 0xaa, 0xbd, 0xa5, 0x64, 0xb0, 0x3e, 0x0d, 0xc6, 0x09, 0xbe,
  0x78, 0x56, 0x04, 0x3e, 0x3c, 0xf1, 0x90, 0x3e, 0x8b, 0x64, 0xf2, 0xbd,
  0x87, 0x7a, 0x1b, 0xbe, 0xb0, 0x4d, 0xa3, 0x3e, 0x7d, 0x90, 0x62, 0xbe,
  0x29, 0xac, 0x8b, 0xbe, 0x2a, 0xbc, 0x69, 0xbe, 0xaf, 0x79, 0x82, 0x3e,
  0xc3, 0x61, 0x15, 0xbe, 0x7c, 0x81, 0xbf, 0x3e, 0xb0, 0xed, 0xc4, 0xbe,
  0x74, 0xf2, 0x6d, 0xbe, 0x8d, 0x04, 0x6a, 0xbe, 0x8d, 0x47, 0x15, 0x3e,
  0x09, 0x1b, 0xa9, 0xbc, 0x16, 0x77, 0xc0, 0x3d, 0xea, 0x6d, 0x0c, 0xbe,
  0x88, 0x2f, 0xb4, 0x3e, 0x37, 0x41, 0x73, 0x3f, 0xef, 0x40, 0x6f, 0xbe,
  0x5b, 0x1d, 0x4b, 0x3d, 0x80, 0xa4, 0x9d, 0x3e, 0xbc, 0x6f, 0x16, 0x3f,
  0x1b, 0x1a, 0xa2, 0xbe, 0xe9, 0xed, 0x81, 0xbf, 0xff, 0x79, 0xcd, 0x3e,
  0x9a, 0x3e, 0x6d, 0x3e, 0x74, 0x3e, 0xa9, 0xbc, 0x24, 0x80, 0x99, 0xbe,
  0xd7, 0xf7, 0xab, 0x3e, 0xed, 0x0b, 0x8a, 0xbe, 0x62, 0x86, 0xe6, 0x3d,
  0x33, 0xef, 0xec, 0x3d, 0x1d, 0x6a, 0x1b, 0x3e, 0x5e, 0x12, 0x36, 0x3d,
  0xe4, 0x07, 0x8b, 0x3e, 0xac, 0xf1, 0x42, 0x3f, 0x50, 0xbc, 0x79, 0xbe,
  0x76, 0x1b, 0xc1, 0xbd, 0xe3, 0xe3, 0x22, 0x3e, 0xd7, 0xc6, 0xb6, 0x3e,
  0xee, 0x14, 0xdb, 0x3d, 0x04, 0x9d, 0x39, 0x3e, 0x48, 0x55, 0xb3, 0xbe,
  0xfb, 0x99, 0x92, 0xbd, 0x7c, 0xa4, 0xe7, 0xbd, 0x7f, 0xab, 0x24, 0xbe,
  0x8b, 0xbd, 0xae, 0x3d, 0x14, 0x50, 0x06, 0xbf, 0xd6, 0xec, 0x55, 0x3e,
  0x6f, 0xcc, 0xe4, 0xbd, 0x4f, 0xbe, 0x92, 0x3d, 0x26, 0x5f, 0x95, 0xbe,
  0xa9, 0x3c, 0x19, 0x3f, 0xd5, 0xbc, 0x14, 0x3f, 0x3b, 0x83, 0x00, 0xbf,
  0xc5, 0x32, 0x0f, 0xbe, 0xee, 0xbc, 0xf3, 0xbc, 0x20, 0xaa, 0xcc, 0xbc,
  0x34, 0xa9, 0x8c, 0xbe, 0x06, 0xb3, 0x43, 0x3e, 0x40, 0xa3, 0x37, 0x3e,
  0x60, 0x14, 0x3b, 0x3c, 0x92, 0x88, 0x55, 0x3e, 0x5f, 0x6d, 0x88, 0x3e,
  0x24, 0x4d, 0x8c, 0xbe, 0x20, 0xbb, 0x17, 0x3e, 0x1e, 0xbf, 0x56, 0x3e,
  0x00, 0xde, 0x29, 0xbe, 0x70, 0x41, 0x58, 0xbd, 0x76, 0x1c, 0x55, 0x3e,
  0xa2, 0x4e, 0x6c, 0x3e, 0x0f, 0x0a, 0x8f, 0x3e, 0xa7, 0x0c, 0x9e, 0xbe,
  0x31, 0xae, 0x97, 0xbe, 0x7c, 0xc3, 0xca, 0xbd, 0x02, 0x41, 0x9b, 0xbd,
  0xe2, 0xed, 0x97, 0xbd, 0xee, 0xde, 0xdd, 0xbd, 0x90, 0x8c, 0xdc, 0x3c,
  0x38, 0xdb, 0x6a, 0xbe, 0x04, 0xe3, 0xbf, 0x3d, 0x00, 0x8d, 0xe3, 0x3b,
  0x68, 0xef, 0x54, 0xbd, 0x6a, 0x8f, 0xc2, 0xbd, 0x19, 0x3e, 0x9a, 0xbe,
  0xe4, 0xc5, 0x88, 0x3d, 0x7e, 0xd2, 0x8e, 0xbe, 0x7a, 0xef, 0x78, 0x3e,
  0x38, 0x52, 0x93, 0x3c, 0x10, 0x0f, 0x0f, 0xbe, 0xb3, 0x92, 0x4d, 0x3d,
  0xce, 0xdf, 0xc2, 0xbd, 0x53, 0x4b, 0x87, 0xbe, 0x16, 0xdd, 0xf9, 0xbc,
  0x49, 0x4e, 0xce, 0x3e, 0xa6, 0x53, 0x4f, 0x3f, 0xad, 0xf5, 0x8e, 0xbe,
  0x26, 0xe7, 0x17, 0x3e, 0xf7, 0xeb, 0xc3, 0xbe, 0x5f, 0x23, 0xaa, 0x3e,
  0x0d, 0xb3, 0xa6, 0xbd, 0xa0, 0xa9, 0xbd, 0x3e, 0xf8, 0x20, 0x2e, 0xbe,
  0x0d, 0x30, 0x34, 0xbe, 0x7e, 0xf9, 0x3c, 0x3d, 0x0a, 0xfd, 0xa7, 0x3e,
  0xae, 0xb1, 0x0e, 0xbe, 0xc1, 0x5b, 0x6d, 0xbf, 0x86, 0x7a, 0x35, 0x3f,
  0xd0, 0xbb, 0xfd, 0x3d, 0xd3, 0xd7, 0x2b, 0xbe, 0xbd, 0x10, 0x84, 0xbe,
  0xb6, 0x9c, 0x19, 0x3f, 0x4e, 0xc5, 0x46, 0x3f, 0x8c, 0x51, 0xeb, 0xbd,
  0xa7, 0x9f, 0x5a, 0x3e, 0x42, 0x79, 0x3c, 0x3d, 0xe3, 0xd5, 0x82, 0x3e,
  0xd2, 0xfa, 0xff, 0xff, 0x04, 0x00, 0x00, 0x00, 0x78, 0x00, 0x00, 0x00,
  0x00, 0x00, 0x00, 0x00, 0x00, 0x00, 0x00, 0x00, 0x00, 0x00, 0x00, 0x00,
  0x00, 0x00, 0x00, 0x00, 0x00, 0x00, 0x00, 0x00, 0xac, 0xad, 0x36, 0xbd,
  0x00, 0x00, 0x00, 0x00, 0x00, 0x00, 0x00, 0x00, 0x00, 0x00, 0x00, 0x00,
  0xfa, 0xdf, 0x2a, 0x3a, 0x00, 0x00, 0x00, 0x00, 0x6a, 0xcd, 0x2a, 0xbd,
  0x0a, 0x6f, 0x12, 0x3d, 0x9a, 0x90, 0xc0, 0xbd, 0x62, 0xff, 0xc9, 0xbb,
  0xf6, 0x17, 0x4a, 0xbd, 0xd5, 0xfd, 0x1a, 0x3d, 0xaa, 0x31, 0xa1, 0xba,
  0x69, 0x21, 0x83, 0x3d, 0x00, 0x00, 0x00, 0x00, 0x6a, 0xe8, 0x9d, 0xbd,
  0x07, 0x62, 0x8c, 0xbd, 0xa4, 0x4a, 0xf1, 0xbc, 0xcb, 0x2f, 0x36, 0xbc,
  0x00, 0x00, 0x00, 0x00, 0xdb, 0xcc, 0x3b, 0x3d, 0x46, 0xdc, 0x9c, 0x3d,
  0x61, 0x13, 0x59, 0xbd, 0x00, 0x00, 0x00, 0x00, 0xbb, 0xf5, 0xf4, 0xbc,
  0x56, 0xfb, 0xff, 0xff, 0x04, 0x00, 0x00, 0x00, 0x1c, 0x00, 0x00, 0x00,
  0x00, 0x00, 0x00, 0x00, 0xc4, 0xd8, 0xcb, 0xbb, 0x00, 0x00, 0x00, 0x00,
  0x00, 0x00, 0x00, 0x00, 0xeb, 0xf7, 0x4c, 0xbc, 0xfe, 0xd9, 0xfe, 0xbb,
  0xc2, 0xf9, 0xcf, 0xbc, 0x7e, 0xfb, 0xff, 0xff, 0x04, 0x00, 0x00, 0x00,
  0x10, 0x00, 0x00, 0x00, 0x6d, 0x52, 0xac, 0x3f, 0x04, 0x13, 0x78, 0x40,
  0x35, 0x91, 0xf9, 0xc0, 0xf9, 0x16, 0xc1, 0xbf, 0x9a, 0xfb, 0xff, 0xff,
  0x04, 0x00, 0x00, 0x00, 0x48, 0x03, 0x00, 0x00, 0x5c, 0xa1, 0xa4, 0x3e,
  0x90, 0x40, 0xa5, 0x3c, 0xb5, 0x29, 0xbc, 0xbe, 0xfc, 0xea, 0x06, 0xbe,
  0x70, 0x41, 0xf6, 0x3d, 0x50, 0xa9, 0xcb, 0x3e, 0xcd, 0xf4, 0x67, 0xbe,
  0x68, 0x3d, 0x92, 0xbe, 0x34, 0xda, 0xc5, 0x3d, 0x24, 0xa3, 0x91, 0x3e,
  0xec, 0x44, 0x98, 0xbe, 0xe1, 0x64, 0x4e, 0xbe, 0x26, 0xc6, 0x6c, 0xbe,
  0x84, 0x06, 0xbb, 0x3d, 0xd0, 0x0b, 0xad, 0xbe, 0xc6, 0xe2, 0x9c, 0xbe,
  0xe0, 0xab, 0x22, 0x3e, 0xfc, 0xb0, 0xa2, 0xbd, 0x62, 0xd7, 0xb1, 0xbe,
  0x63, 0x76, 0xa3, 0xbe, 0x74, 0x32, 0xba, 0x3e, 0x4a, 0x10, 0xa8, 0xbe,
  0x38, 0x19, 0x36, 0x3e, 0x74, 0x75, 0xab, 0x3d, 0x68, 0x37, 0x7e, 0x3d,
  0x20, 0xc3, 0x37, 0x3c, 0x6c, 0x7a, 0x86, 0xbd, 0x40, 0xc7, 0xbd, 0xbe,
  0x80, 0x18, 0x07, 0xbc, 0xfc, 0x85, 0x7d, 0x3e, 0x24, 0xbd, 0x27, 0x3e,
  0x70, 0x65, 0x7f, 0x3d, 0x4c, 0xd5, 0x9a, 0xbe, 0x00, 0xfc, 0x33, 0xbb,
  0xa0, 0x92, 0x24, 0xbc, 0x84, 0x63, 0xf1, 0xbd, 0xef, 0x03, 0x26, 0xbe,
  0x32, 0xd8, 0x8d, 0x3e, 0x24, 0x5a, 0xfd, 0xbd, 0x7a, 0xf8, 0x5e, 0xbc,
  0x4c, 0xb6, 0x8c, 0x3d, 0xbe, 0x8a, 0x83, 0xbb, 0x37, 0xc9, 0x7b, 0x3c,
  0xf2, 0xa3, 0x88, 0xbd, 0x89, 0x01, 0xc9, 0x3d, 0x10, 0x02, 0x17, 0xbe,
  0x67, 0x1c, 0x5b, 0xbe, 0x23, 0x56, 0x14, 0xbe, 0x50, 0x3d, 0x96, 0x3e,
  0xe6, 0xd0, 0x62, 0xbe, 0x80, 0x7b, 0x67, 0x3e, 0x1c, 0x1b, 0x8b, 0x3e,
  0x9e, 0xe2, 0x9e, 0x3e, 0xd1, 0x40, 0x85, 0x3c, 0xaa, 0xf7, 0xa7, 0x3e,
  0x49, 0x3a, 0x77, 0xbe, 0xb7, 0xd4, 0xb8, 0x3e, 0xe3, 0x36, 0x81, 0x3e,
  0xe0, 0x36, 0xa8, 0xbc, 0x1a, 0xe2, 0x50, 0xbe, 0x9e, 0xd6, 0xb1, 0xbe,
  0x0c, 0x29, 0x07, 0xbe, 0xf0, 0x7a, 0x91, 0xbc, 0x00, 0xed, 0xac, 0x3b,
  0xe4, 0xa5, 0x9c, 0xbe, 0xe0, 0x36, 0x48, 0x3c, 0x3a, 0xfb, 0x9d, 0xbe,
  0xe0, 0x4d, 0xc5, 0x3c, 0x4c, 0x86, 0xc2, 0x3d, 0xf0, 0x4a, 0xa1, 0x3e,
  0x24, 0x90, 0xa8, 0x3d, 0x00, 0xb4, 0x0a, 0xbd, 0x00, 0x25, 0xcb, 0x3a,
  0x90, 0x29, 0x00, 0xbd, 0xc0, 0xf0, 0xfe, 0xbc, 0xd2, 0xcd, 0xa4, 0xbe,
  0x28, 0x84, 0x92, 0x3e, 0x40, 0x8e, 0x90, 0xbe, 0x00, 0x14, 0x49, 0x3e,
  0xec, 0xdb, 0x40, 0x3e, 0x28, 0xce, 0x07, 0xbd, 0x00, 0x75, 0xac, 0xbe,
  0x95, 0xca, 0x44, 0xbe, 0x6e, 0x7d, 0xcc, 0xbe, 0xa0, 0xba, 0x46, 0x3e,
  0x10, 0x5e, 0x76, 0xbd, 0xec, 0x08, 0xa2, 0xbd, 0x3c, 0x1e, 0xbb, 0x3e,
  0xd6, 0xde, 0x87, 0x3e, 0x90, 0x3b, 0xab, 0xbd, 0xf0, 0x3e, 0xa5, 0xbc,
  0xc0, 0x08, 0xa2, 0xbb, 0x10, 0x1e, 0xbf, 0x3c, 0xfc, 0x49, 0x0c, 0x3e,
  0xd8, 0xf4, 0x53, 0x3d, 0x94, 0xf6, 0xa0, 0xbd, 0x90, 0x66, 0x17, 0xbd,
  0x8e, 0x6c, 0xcb, 0x3e, 0xdf, 0xb5, 0xb9, 0xbe, 0x02, 0x94, 0xa0, 0x3e,
  0x00, 0xda, 0x86, 0x3a, 0x59, 0xe0, 0x8d, 0xbe, 0xec, 0xd5, 0xcc, 0xbe,
  0xe8, 0xc7, 0xaa, 0xbe, 0xe0, 0xf3, 0xff, 0xbc, 0xfc, 0x28, 0xaa, 0xbd,
  0xdc, 0xdc, 0x12, 0x3e, 0x49, 0xf2, 0x4b, 0xbe, 0x4f, 0xb8, 0x66, 0xbe,
  0xdc, 0xb0, 0x46, 0x3e, 0xa7, 0x93, 0x55, 0xbe, 0x20, 0xa4, 0xe0, 0xbd,
  0xa6, 0x79, 0x9b, 0x3e, 0x73, 0x20, 0xa3, 0xbe, 0x46, 0x43, 0x8c, 0x3e,
  0x84, 0xbe, 0xa9, 0x3d, 0x4a, 0xef, 0xbd, 0x3e, 0xd4, 0x23, 0xba, 0x3e,
  0x5e, 0xe7, 0xb6, 0xbe, 0x28, 0x28, 0x69, 0xbd, 0xb6, 0x52, 0x1e, 0xbe,
  0x52, 0xed, 0x2c, 0xbe, 0xcc, 0xe1, 0xb1, 0x3d, 0x62, 0x88, 0x9a, 0x3e,
  0xd5, 0xd6, 0x9d, 0xbe, 0xa7, 0xd3, 0xb6, 0xbd, 0xb0, 0xf0, 0x42, 0xbe,
  0xc0, 0xc5, 0x03, 0x3d, 0x0d, 0x4e, 0xb8, 0xbe, 0xfb, 0x38, 0xbc, 0x3e,
  0xe8, 0xec, 0x91, 0xbe, 0x44, 0x90, 0x38, 0xbe, 0xbb, 0x7f, 0x8f, 0x3e,
  0xbf, 0x52, 0xda, 0x3d, 0x35, 0x21, 0x4d, 0x3e, 0xec, 0x6c, 0xad, 0xbe,
  0x9a, 0xb9, 0x83, 0x3e, 0xf8, 0x5e, 0xc5, 0x3e, 0x7f, 0xf9, 0x89, 0xbe,
  0x58, 0xe5, 0xca, 0x3d, 0x7a, 0x3c, 0x67, 0xbe, 0xad, 0xbd, 0x4e, 0xbe,
  0x9b, 0x95, 0x9a, 0x3e, 0xb1, 0x8f, 0xcf, 0x3e, 0x3c, 0x50, 0x07, 0xbe,
  0xfa, 0x15, 0x83, 0x3e, 0x40, 0xa3, 0xfb, 0xbd, 0x43, 0x9a, 0x51, 0x3e,
  0x90, 0xd7, 0xdc, 0xbd, 0x06, 0x68, 0xcc, 0xbe, 0x60, 0x82, 0xb2, 0xbd,
  0x80, 0xab, 0x30, 0xbb, 0x0a, 0xde, 0xcb, 0xbe, 0x3c, 0xca, 0x3a, 0x3e,
  0xe8, 0xd8, 0xbc, 0x3e, 0x62, 0x61, 0xfa, 0xbd, 0xa8, 0x0a, 0x59, 0x3d,
  0x3a, 0xa3, 0x9b, 0x3e, 0xb0, 0x64, 0x1e, 0x3e, 0x58, 0x55, 0x8b, 0xbe,
  0xec, 0x16, 0x43, 0x3e, 0x07, 0xaf, 0x2a, 0x3e, 0xa1, 0xb2, 0xe6, 0x3d,
  0x49, 0x0c, 0x99, 0xbe, 0x85, 0x5d, 0xab, 0xbe, 0xd1, 0x38, 0xa9, 0x3e,
  0x4d, 0x4b, 0xef, 0xbd, 0xe8, 0xbd, 0x33, 0xbe, 0xf4, 0xe8, 0xab, 0x3e,
  0xc8, 0xee, 0xd0, 0x3d, 0x86, 0xe7, 0x9d, 0xbe, 0x1b, 0x37, 0x22, 0xbe,
  0x10, 0x64, 0xfd, 0x3d, 0xb8, 0x38, 0x1d, 0xbd, 0xc7, 0xa3, 0xaf, 0xbe,
  0x29, 0x34, 0x6c, 0x3e, 0x5f, 0xdc, 0xdb, 0x3d, 0xdc, 0x6f, 0x98, 0xbe,
  0x78, 0xfd, 0x03, 0xbe, 0x9d, 0x2b, 0xbc, 0xbe, 0xe6, 0x72, 0x3a, 0xbe,
  0x8e, 0x66, 0x21, 0xbe, 0xd0, 0x1e, 0x82, 0xbc, 0x9b, 0xef, 0x5e, 0xbe,
  0x9a, 0x03, 0xcc, 0xbe, 0x35, 0x2b, 0x4a, 0x3f, 0xd8, 0x50, 0xc8, 0x3e,
  0x00, 0xee, 0x72, 0xbc, 0xc4, 0x41, 0x8f, 0xbd, 0x64, 0xe4, 0x5c, 0xc0,
  0x42, 0xf4, 0x92, 0xbe, 0x3e, 0x46, 0x49, 0x3f, 0x3b, 0x50, 0xee, 0xbf,
  0xc9, 0x44, 0x05, 0x3f, 0x35, 0x96, 0xb3, 0x3c, 0x97, 0x95, 0x2e, 0x3f,
  0x3c, 0xda, 0x09, 0xc0, 0x43, 0x6d, 0x6a, 0xbf, 0x67, 0x87, 0x24, 0xc0,
  0x84, 0xa2, 0x3c, 0x3e, 0x60, 0x80, 0xe9, 0x3f, 0x17, 0xe1, 0x12, 0x3f,
  0x0d, 0x32, 0x96, 0xbd, 0x57, 0x30, 0x11, 0xbd, 0xf8, 0x57, 0xb9, 0x3e,
  0x5c, 0x53, 0x26, 0xc0, 0xe6, 0x01, 0x35, 0xc0, 0x2e, 0xc7, 0x83, 0x3f,
  0x12, 0x71, 0xcb, 0x3e, 0xe0, 0x47, 0x89, 0x3f, 0xee, 0xfe, 0xff, 0xff,
  0x04, 0x00, 0x00, 0x00, 0x70, 0x00, 0x00, 0x00, 0x3d, 0x5d, 0x00, 0xbf,
  0xdf, 0xe2, 0x36, 0x3e, 0x20, 0x48, 0x98, 0xbd, 0xd3, 0x67, 0xa9, 0xbe,
  0x4b, 0xdc, 0xc4, 0x3e, 0x30, 0x2f, 0x3b, 0xbf, 0x69, 0x3c, 0xfa, 0xbf,
  0x4f, 0xd4, 0x92, 0xbe, 0xd0, 0x4c, 0xc8, 0x3d, 0xeb, 0x95, 0x08, 0xbf,
  0x68, 0xf4, 0x49, 0x3e, 0x5a, 0xfa, 0xe5, 0x3e, 0x00, 0xa6, 0xa2, 0xbe,
  0xb8, 0x28, 0x22, 0xc1, 0x7e, 0x84, 0x7c, 0xbe, 0xaf, 0xc5, 0xa4, 0x3d,
  0x9d, 0x31, 0x0b, 0xbf, 0xd1, 0x50, 0x0a, 0xbf, 0x73, 0xbb, 0x9a, 0x3d,
  0x2b, 0x51, 0xad, 0x3e, 0xa0, 0xa8, 0xcd, 0x3f, 0x96, 0x38, 0x92, 0x3e,
  0xe0, 0x24, 0x2d, 0x3f, 0x0e, 0xcf, 0xdb, 0x3e, 0x20, 0xac, 0x4e, 0xbe,
  0x16, 0x0f, 0xa0, 0xbd, 0xf3, 0xbf, 0x93, 0xbd, 0x9f, 0xbc, 0xd1, 0x3d,
  0xb0, 0xfa, 0xff, 0xff, 0xb4, 0xfa, 0xff, 0xff, 0x0f, 0x00, 0x00, 0x00,
  0x4d, 0x4c, 0x49, 0x52, 0x20, 0x43, 0x6f, 0x6e, 0x76, 0x65, 0x72, 0x74,
  0x65, 0x64, 0x2e, 0x00, 0x01, 0x00, 0x00, 0x00, 0x14, 0x00, 0x00, 0x00,
  0x00, 0x00, 0x0e, 0x00, 0x18, 0x00, 0x14, 0x00, 0x10, 0x00, 0x0c, 0x00,
  0x08, 0x00, 0x04, 0x00, 0x0e, 0x00, 0x00, 0x00, 0x14, 0x00, 0x00, 0x00,
  0x1c, 0x00, 0x00, 0x00, 0x34, 0x01, 0x00, 0x00, 0x38, 0x01, 0x00, 0x00,
  0x3c, 0x01, 0x00, 0x00, 0x04, 0x00, 0x00, 0x00, 0x6d, 0x61, 0x69, 0x6e,
  0x00, 0x00, 0x00, 0x00, 0x04, 0x00, 0x00, 0x00, 0xdc, 0x00, 0x00, 0x00,
  0x94, 0x00, 0x00, 0x00, 0x50, 0x00, 0x00, 0x00, 0x14, 0x00, 0x00, 0x00,
  0x00, 0x00, 0x0e, 0x00, 0x1a, 0x00, 0x14, 0x00, 0x10, 0x00, 0x0c, 0x00,
  0x0b, 0x00, 0x04, 0x00, 0x0e, 0x00, 0x00, 0x00, 0x1c, 0x00, 0x00, 0x00,
  0x00, 0x00, 0x00, 0x09, 0x1c, 0x00, 0x00, 0x00, 0x20, 0x00, 0x00, 0x00,
  0x01, 0x00, 0x00, 0x00, 0x00, 0x00, 0x06, 0x00, 0x08, 0x00, 0x04, 0x00,
  0x06, 0x00, 0x00, 0x00, 0x00, 0x00, 0x80, 0x3f, 0x01, 0x00, 0x00, 0x00,
  0x0a, 0x00, 0x00, 0x00, 0x01, 0x00, 0x00, 0x00, 0x09, 0x00, 0x00, 0x00,
  0xce, 0xff, 0xff, 0xff, 0x10, 0x00, 0x00, 0x00, 0x00, 0x00, 0x00, 0x08,
  0x0c, 0x00, 0x00, 0x00, 0x10, 0x00, 0x00, 0x00, 0x78, 0xfb, 0xff, 0xff,
  0x01, 0x00, 0x00, 0x00, 0x09, 0x00, 0x00, 0x00, 0x03, 0x00, 0x00, 0x00,
  0x08, 0x00, 0x00, 0x00, 0x01, 0x00, 0x00, 0x00, 0x03, 0x00, 0x00, 0x00,
  0x00, 0x00, 0x0e, 0x00, 0x14, 0x00, 0x00, 0x00, 0x10, 0x00, 0x0c, 0x00,
  0x0b, 0x00, 0x04, 0x00, 0x0e, 0x00, 0x00, 0x00, 0x10, 0x00, 0x00, 0x00,
  0x00, 0x00, 0x00, 0x08, 0x10, 0x00, 0x00, 0x00, 0x14, 0x00, 0x00, 0x00,
  0xba, 0xff, 0xff, 0xff, 0x00, 0x00, 0x00, 0x01, 0x01, 0x00, 0x00, 0x00,
  0x08, 0x00, 0x00, 0x00, 0x03, 0x00, 0x00, 0x00, 0x07, 0x00, 0x00, 0x00,
  0x02, 0x00, 0x00, 0x00, 0x04, 0x00, 0x00, 0x00, 0x00, 0x00, 0x0e, 0x00,
  0x16, 0x00, 0x00, 0x00, 0x10, 0x00, 0x0c, 0x00, 0x0b, 0x00, 0x04, 0x00,
  0x0e, 0x00, 0x00, 0x00, 0x18, 0x00, 0x00, 0x00, 0x00, 0x00, 0x00, 0x08,
  0x18, 0x00, 0x00, 0x00, 0x1c, 0x00, 0x00, 0x00, 0x00, 0x00, 0x06, 0x00,
  0x08, 0x00, 0x07, 0x00, 0x06, 0x00, 0x00, 0x00, 0x00, 0x00, 0x00, 0x01,
  0x01, 0x00, 0x00, 0x00, 0x07, 0x00, 0x00, 0x00, 0x03, 0x00, 0x00, 0x00,
  0x00, 0x00, 0x00, 0x00, 0x06, 0x00, 0x00, 0x00, 0x05, 0x00, 0x00, 0x00,
  0x01, 0x00, 0x00, 0x00, 0x0a, 0x00, 0x00, 0x00, 0x01, 0x00, 0x00, 0x00,
  0x00, 0x00, 0x00, 0x00, 0x0b, 0x00, 0x00, 0x00, 0xb0, 0x03, 0x00, 0x00,
  0x58, 0x03, 0x00, 0x00, 0x18, 0x03, 0x00, 0x00, 0xdc, 0x02, 0x00, 0x00,
  0xa0, 0x02, 0x00, 0x00, 0x40, 0x02, 0x00, 0x00, 0xec, 0x01, 0x00, 0x00,
  0x58, 0x01, 0x00, 0x00, 0xc4, 0x00, 0x00, 0x00, 0x50, 0x00, 0x00, 0x00,
  0x04, 0x00, 0x00, 0x00, 0x92, 0xfc, 0xff, 0xff, 0x00, 0x00, 0x00, 0x01,
  0x10, 0x00, 0x00, 0x00, 0x10, 0x00, 0x00, 0x00, 0x0b, 0x00, 0x00, 0x00,
  0x28, 0x00, 0x00, 0x00, 0x7c, 0xfc, 0xff, 0xff, 0x1b, 0x00, 0x00, 0x00,
  0x53, 0x74, 0x61, 0x74, 0x65, 0x66, 0x75, 0x6c, 0x50, 0x61, 0x72, 0x74,
  0x69, 0x74, 0x69, 0x6f, 0x6e, 0x65, 0x64, 0x43, 0x61, 0x6c, 0x6c, 0x5f,
  0x31, 0x3a, 0x30, 0x00, 0x02, 0x00, 0x00, 0x00, 0x01, 0x00, 0x00, 0x00,
  0x04, 0x00, 0x00, 0x00, 0xda, 0xfc, 0xff, 0xff, 0x00, 0x00, 0x00, 0x01,
  0x10, 0x00, 0x00, 0x00, 0x10, 0x00, 0x00, 0x00, 0x0a, 0x00, 0x00, 0x00,
  0x50, 0x00, 0x00, 0x00, 0xc4, 0xfc, 0xff, 0xff, 0x42, 0x00, 0x00, 0x00,
  0x73, 0x65, 0x71, 0x75, 0x65, 0x6e, 0x74, 0x69, 0x61, 0x6c, 0x5f, 0x37,
  0x5f, 0x31, 0x2f, 0x64, 0x65, 0x6e, 0x73, 0x65, 0x5f, 0x32, 0x33, 0x5f,
  0x31, 0x2f, 0x4d, 0x61, 0x74, 0x4d, 0x75, 0x6c, 0x3b, 0x73, 0x65, 0x71,
  0x75, 0x65, 0x6e, 0x74, 0x69, 0x61, 0x6c, 0x5f, 0x37, 0x5f, 0x31, 0x2f,
  0x64, 0x65, 0x6e, 0x73, 0x65, 0x5f, 0x32, 0x33, 0x5f, 0x31, 0x2f, 0x42,
  0x69, 0x61, 0x73, 0x41, 0x64, 0x64, 0x00, 0x00, 0x02, 0x00, 0x00, 0x00,
  0x01, 0x00, 0x00, 0x00, 0x04, 0x00, 0x00, 0x00, 0x4a, 0xfd, 0xff, 0xff,
  0x00, 0x00, 0x00, 0x01, 0x10, 0x00, 0x00, 0x00, 0x10, 0x00, 0x00, 0x00,
  0x09, 0x00, 0x00, 0x00, 0x70, 0x00, 0x00, 0x00, 0x34, 0xfd, 0xff, 0xff,
  0x61, 0x00, 0x00, 0x00, 0x73, 0x65, 0x71, 0x75, 0x65, 0x6e, 0x74, 0x69,
  0x61, 0x6c, 0x5f, 0x37, 0x5f, 0x31, 0x2f, 0x64, 0x65, 0x6e, 0x73, 0x65,
  0x5f, 0x32, 0x32, 0x5f, 0x31, 0x2f, 0x4d, 0x61, 0x74, 0x4d, 0x75, 0x6c,
  0x3b, 0x73, 0x65, 0x71, 0x75, 0x65, 0x6e, 0x74, 0x69, 0x61, 0x6c, 0x5f,
  0x37, 0x5f, 0x31, 0x2f, 0x64, 0x65, 0x6e, 0x73, 0x65, 0x5f, 0x32, 0x32,
  0x5f, 0x31, 0x2f, 0x52, 0x65, 0x6c, 0x75, 0x3b, 0x73, 0x65, 0x71, 0x75,
  0x65, 0x6e, 0x74, 0x69, 0x61, 0x6c, 0x5f, 0x37, 0x5f, 0x31, 0x2f, 0x64,
  0x65, 0x6e, 0x73, 0x65, 0x5f, 0x32, 0x32, 0x5f, 0x31, 0x2f, 0x42, 0x69,
  0x61, 0x73, 0x41, 0x64, 0x64, 0x00, 0x00, 0x00, 0x02, 0x00, 0x00, 0x00,
  0x01, 0x00, 0x00, 0x00, 0x07, 0x00, 0x00, 0x00, 0xda, 0xfd, 0xff, 0xff,
  0x00, 0x00, 0x00, 0x01, 0x10, 0x00, 0x00, 0x00, 0x10, 0x00, 0x00, 0x00,
  0x08, 0x00, 0x00, 0x00, 0x70, 0x00, 0x00, 0x00, 0xc4, 0xfd, 0xff, 0xff,
  0x61, 0x00, 0x00, 0x00, 0x73, 0x65, 0x71, 0x75, 0x65, 0x6e, 0x74, 0x69,
  0x61, 0x6c, 0x5f, 0x37, 0x5f, 0x31, 0x2f, 0x64, 0x65, 0x6e, 0x73, 0x65,
  0x5f, 0x32, 0x31, 0x5f, 0x31, 0x2f, 0x4d, 0x61, 0x74, 0x4d, 0x75, 0x6c,
  0x3b, 0x73, 0x65, 0x71, 0x75, 0x65, 0x6e, 0x74, 0x69, 0x61, 0x6c, 0x5f,
  0x37, 0x5f, 0x31, 0x2f, 0x64, 0x65, 0x6e, 0x73, 0x65, 0x5f, 0x32, 0x31,
  0x5f, 0x31, 0x2f, 0x52, 0x65, 0x6c, 0x75, 0x3b, 0x73, 0x65, 0x71, 0x75,
  0x65, 0x6e, 0x74, 0x69, 0x61, 0x6c, 0x5f, 0x37, 0x5f, 0x31, 0x2f, 0x64,
  0x65, 0x6e, 0x73, 0x65, 0x5f, 0x32, 0x31, 0x5f, 0x31, 0x2f, 0x42, 0x69,
  0x61, 0x73, 0x41, 0x64, 0x64, 0x00, 0x00, 0x00, 0x02, 0x00, 0x00, 0x00,
  0x01, 0x00, 0x00, 0x00, 0x1e, 0x00, 0x00, 0x00, 0x6a, 0xfe, 0xff, 0xff,
  0x00, 0x00, 0x00, 0x01, 0x10, 0x00, 0x00, 0x00, 0x10, 0x00, 0x00, 0x00,
  0x07, 0x00, 0x00, 0x00, 0x30, 0x00, 0x00, 0x00, 0x54, 0xfe, 0xff, 0xff,
  0x20, 0x00, 0x00, 0x00, 0x73, 0x65, 0x71, 0x75, 0x65, 0x6e, 0x74, 0x69,
  0x61, 0x6c, 0x5f, 0x37, 0x5f, 0x31, 0x2f, 0x64, 0x65, 0x6e, 0x73, 0x65,
  0x5f, 0x32, 0x31, 0x5f, 0x31, 0x2f, 0x4d, 0x61, 0x74, 0x4d, 0x75, 0x6c,
  0x00, 0x00, 0x00, 0x00, 0x02, 0x00, 0x00, 0x00, 0x1e, 0x00, 0x00, 0x00,
  0x1e, 0x00, 0x00, 0x00, 0xba, 0xfe, 0xff, 0xff, 0x00, 0x00, 0x00, 0x01,
  0x10, 0x00, 0x00, 0x00, 0x10, 0x00, 0x00, 0x00, 0x06, 0x00, 0x00, 0x00,
  0x40, 0x00, 0x00, 0x00, 0xa4, 0xfe, 0xff, 0xff, 0x30, 0x00, 0x00, 0x00,
  0x73, 0x65, 0x71, 0x75, 0x65, 0x6e, 0x74, 0x69, 0x61, 0x6c, 0x5f, 0x37,
  0x5f, 0x31, 0x2f, 0x64, 0x65, 0x6e, 0x73, 0x65, 0x5f, 0x32, 0x31, 0x5f,
  0x31, 0x2f, 0x42, 0x69, 0x61, 0x73, 0x41, 0x64, 0x64, 0x2f, 0x52, 0x65,
  0x61, 0x64, 0x56, 0x61, 0x72, 0x69, 0x61, 0x62, 0x6c, 0x65, 0x4f, 0x70,
  0x00, 0x00, 0x00, 0x00, 0x01, 0x00, 0x00, 0x00, 0x1e, 0x00, 0x00, 0x00,
  0x16, 0xff, 0xff, 0xff, 0x00, 0x00, 0x00, 0x01, 0x10, 0x00, 0x00, 0x00,
  0x10, 0x00, 0x00, 0x00, 0x05, 0x00, 0x00, 0x00, 0x1c, 0x00, 0x00, 0x00,
  0x00, 0xff, 0xff, 0xff, 0x0f, 0x00, 0x00, 0x00, 0x61, 0x72, 0x69, 0x74,
  0x68, 0x2e, 0x63, 0x6f, 0x6e, 0x73, 0x74, 0x61, 0x6e, 0x74, 0x33, 0x00,
  0x01, 0x00, 0x00, 0x00, 0x07, 0x00, 0x00, 0x00, 0x4e, 0xff, 0xff, 0xff,
  0x00, 0x00, 0x00, 0x01, 0x10, 0x00, 0x00, 0x00, 0x10, 0x00, 0x00, 0x00,
  0x04, 0x00, 0x00, 0x00, 0x1c, 0x00, 0x00, 0x00, 0x38, 0xff, 0xff, 0xff,
  0x0f, 0x00, 0x00, 0x00, 0x61, 0x72, 0x69, 0x74, 0x68, 0x2e, 0x63, 0x6f,
  0x6e, 0x73, 0x74, 0x61, 0x6e, 0x74, 0x32, 0x00, 0x01, 0x00, 0x00, 0x00,
  0x04, 0x00, 0x00, 0x00, 0x86, 0xff, 0xff, 0xff, 0x00, 0x00, 0x00, 0x01,
  0x10, 0x00, 0x00, 0x00, 0x10, 0x00, 0x00, 0x00, 0x03, 0x00, 0x00, 0x00,
  0x1c, 0x00, 0x00, 0x00, 0x70, 0xff, 0xff, 0xff, 0x0f, 0x00, 0x00, 0x00,
  0x61, 0x72, 0x69, 0x74, 0x68, 0x2e, 0x63, 0x6f, 0x6e, 0x73, 0x74, 0x61,
  0x6e, 0x74, 0x31, 0x00, 0x02, 0x00, 0x00, 0x00, 0x07, 0x00, 0x00, 0x00,
  0x1e, 0x00, 0x00, 0x00, 0xc2, 0xff, 0xff, 0xff, 0x00, 0x00, 0x00, 0x01,
  0x10, 0x00, 0x00, 0x00, 0x10, 0x00, 0x00, 0x00, 0x02, 0x00, 0x00, 0x00,
  0x1c, 0x00, 0x00, 0x00, 0xac, 0xff, 0xff, 0xff, 0x0e, 0x00, 0x00, 0x00,
  0x61, 0x72, 0x69, 0x74, 0x68, 0x2e, 0x63, 0x6f, 0x6e, 0x73, 0x74, 0x61,
  0x6e, 0x74, 0x00, 0x00, 0x02, 0x00, 0x00, 0x00, 0x04, 0x00, 0x00, 0x00,
  0x07, 0x00, 0x00, 0x00, 0x00, 0x00, 0x16, 0x00, 0x18, 0x00, 0x14, 0x00,
  0x00, 0x00, 0x10, 0x00, 0x0c, 0x00, 0x08, 0x00, 0x00, 0x00, 0x00, 0x00,
  0x00, 0x00, 0x07, 0x00, 0x16, 0x00, 0x00, 0x00, 0x00, 0x00, 0x00, 0x01,
  0x14, 0x00, 0x00, 0x00, 0x14, 0x00, 0x00, 0x00, 0x01, 0x00, 0x00, 0x00,
  0x34, 0x00, 0x00, 0x00, 0x04, 0x00, 0x04, 0x00, 0x04, 0x00, 0x00, 0x00,
  0x21, 0x00, 0x00, 0x00, 0x73, 0x65, 0x72, 0x76, 0x69, 0x6e, 0x67, 0x5f,
  0x64, 0x65, 0x66, 0x61, 0x75, 0x6c, 0x74, 0x5f, 0x6b, 0x65, 0x72, 0x61,
  0x73, 0x5f, 0x74, 0x65, 0x6e, 0x73, 0x6f, 0x72, 0x5f, 0x32, 0x38, 0x3a,
  0x30, 0x00, 0x00, 0x00, 0x02, 0x00, 0x00, 0x00, 0x01, 0x00, 0x00, 0x00,
  0x1e, 0x00, 0x00, 0x00, 0x02, 0x00, 0x00, 0x00, 0x20, 0x00, 0x00, 0x00,
  0x04, 0x00, 0x00, 0x00, 0xf4, 0xff, 0xff, 0xff, 0x19, 0x00, 0x00, 0x00,
  0x00, 0x00, 0x00, 0x19, 0x0c, 0x00, 0x0c, 0x00, 0x0b, 0x00, 0x00, 0x00,
  0x00, 0x00, 0x04, 0x00, 0x0c, 0x00, 0x00, 0x00, 0x09, 0x00, 0x00, 0x00,
  0x00, 0x00, 0x00, 0x09
};
